#ifndef MODEL_TFLITE_H
#define MODEL_TFLITE_H


unsigned int model_tflite_len = 18912;
unsigned char model_tflite[] = {
 0x1c, 0x00, 0x00, 0x00, 0x54, 0x46, 0x4c, 0x33, 0x14, 0x00, 0x20, 0x00,
  0x1c, 0x00, 0x18, 0x00, 0x14, 0x00, 0x10, 0x00, 0x0c, 0x00, 0x00, 0x00,
  0x08, 0x00, 0x04, 0x00, 0x14, 0x00, 0x00, 0x00, 0x1c, 0x00, 0x00, 0x00,
  0x98, 0x00, 0x00, 0x00, 0xf0, 0x00, 0x00, 0x00, 0xa8, 0x43, 0x00, 0x00,
  0xb8, 0x43, 0x00, 0x00, 0x7c, 0x49, 0x00, 0x00, 0x03, 0x00, 0x00, 0x00,
  0x01, 0x00, 0x00, 0x00, 0x10, 0x00, 0x00, 0x00, 0x00, 0x00, 0x0a, 0x00,
  0x10, 0x00, 0x0c, 0x00, 0x08, 0x00, 0x04, 0x00, 0x0a, 0x00, 0x00, 0x00,
  0x0c, 0x00, 0x00, 0x00, 0x1c, 0x00, 0x00, 0x00, 0x3c, 0x00, 0x00, 0x00,
  0x0f, 0x00, 0x00, 0x00, 0x73, 0x65, 0x72, 0x76, 0x69, 0x6e, 0x67, 0x5f,
  0x64, 0x65, 0x66, 0x61, 0x75, 0x6c, 0x74, 0x00, 0x01, 0x00, 0x00, 0x00,
  0x04, 0x00, 0x00, 0x00, 0x90, 0xff, 0xff, 0xff, 0x0a, 0x00, 0x00, 0x00,
  0x04, 0x00, 0x00, 0x00, 0x08, 0x00, 0x00, 0x00, 0x6f, 0x75, 0x74, 0x70,
  0x75, 0x74, 0x5f, 0x30, 0x00, 0x00, 0x00, 0x00, 0x01, 0x00, 0x00, 0x00,
  0x04, 0x00, 0x00, 0x00, 0x3e, 0xbc, 0xff, 0xff, 0x04, 0x00, 0x00, 0x00,
  0x0f, 0x00, 0x00, 0x00, 0x6b, 0x65, 0x72, 0x61, 0x73, 0x5f, 0x74, 0x65,
  0x6e, 0x73, 0x6f, 0x72, 0x5f, 0x37, 0x33, 0x00, 0x02, 0x00, 0x00, 0x00,
  0x34, 0x00, 0x00, 0x00, 0x04, 0x00, 0x00, 0x00, 0xdc, 0xff, 0xff, 0xff,
  0x0d, 0x00, 0x00, 0x00, 0x04, 0x00, 0x00, 0x00, 0x13, 0x00, 0x00, 0x00,
  0x43, 0x4f, 0x4e, 0x56, 0x45, 0x52, 0x53, 0x49, 0x4f, 0x4e, 0x5f, 0x4d,
  0x45, 0x54, 0x41, 0x44, 0x41, 0x54, 0x41, 0x00, 0x08, 0x00, 0x0c, 0x00,
  0x08, 0x00, 0x04, 0x00, 0x08, 0x00, 0x00, 0x00, 0x0c, 0x00, 0x00, 0x00,
  0x04, 0x00, 0x00, 0x00, 0x13, 0x00, 0x00, 0x00, 0x6d, 0x69, 0x6e, 0x5f,
  0x72, 0x75, 0x6e, 0x74, 0x69, 0x6d, 0x65, 0x5f, 0x76, 0x65, 0x72, 0x73,
  0x69, 0x6f, 0x6e, 0x00, 0x0e, 0x00, 0x00, 0x00, 0xb4, 0x42, 0x00, 0x00,
  0xac, 0x42, 0x00, 0x00, 0x9c, 0x40, 0x00, 0x00, 0x8c, 0x20, 0x00, 0x00,
  0x6c, 0x20, 0x00, 0x00, 0xdc, 0x1f, 0x00, 0x00, 0xcc, 0x1e, 0x00, 0x00,
  0xbc, 0x00, 0x00, 0x00, 0xb4, 0x00, 0x00, 0x00, 0xac, 0x00, 0x00, 0x00,
  0xa4, 0x00, 0x00, 0x00, 0x9c, 0x00, 0x00, 0x00, 0x7c, 0x00, 0x00, 0x00,
  0x04, 0x00, 0x00, 0x00, 0xf2, 0xbc, 0xff, 0xff, 0x04, 0x00, 0x00, 0x00,
  0x68, 0x00, 0x00, 0x00, 0x10, 0x00, 0x00, 0x00, 0x00, 0x00, 0x00, 0x00,
  0x08, 0x00, 0x0e, 0x00, 0x08, 0x00, 0x04, 0x00, 0x08, 0x00, 0x00, 0x00,
  0x14, 0x00, 0x00, 0x00, 0x2c, 0x00, 0x00, 0x00, 0x00, 0x00, 0x0a, 0x00,
  0x0c, 0x00, 0x08, 0x00, 0x00, 0x00, 0x07, 0x00, 0x0a, 0x00, 0x00, 0x00,
  0x00, 0x00, 0x00, 0x01, 0x04, 0x00, 0x00, 0x00, 0x00, 0x00, 0x00, 0x00,
  0x0c, 0x00, 0x18, 0x00, 0x14, 0x00, 0x10, 0x00, 0x0c, 0x00, 0x04, 0x00,
  0x0c, 0x00, 0x00, 0x00, 0x55, 0x4e, 0x15, 0x3f, 0x28, 0xc7, 0xe1, 0xf4,
  0x02, 0x00, 0x00, 0x00, 0x02, 0x00, 0x00, 0x00, 0x04, 0x00, 0x00, 0x00,
  0x06, 0x00, 0x00, 0x00, 0x32, 0x2e, 0x31, 0x38, 0x2e, 0x30, 0x00, 0x00,
  0x66, 0xbd, 0xff, 0xff, 0x04, 0x00, 0x00, 0x00, 0x10, 0x00, 0x00, 0x00,
  0x31, 0x2e, 0x35, 0x2e, 0x30, 0x00, 0x00, 0x00, 0x00, 0x00, 0x00, 0x00,
  0x00, 0x00, 0x00, 0x00, 0x70, 0xb8, 0xff, 0xff, 0x74, 0xb8, 0xff, 0xff,
  0x78, 0xb8, 0xff, 0xff, 0x7c, 0xb8, 0xff, 0xff, 0x92, 0xbd, 0xff, 0xff,
  0x04, 0x00, 0x00, 0x00, 0x00, 0x1e, 0x00, 0x00, 0x71, 0xde, 0x8a, 0xbe,
  0x36, 0xe6, 0xc4, 0x3c, 0xfa, 0x43, 0xe0, 0x3e, 0x16, 0xd7, 0x5b, 0xbe,
  0xe0, 0x15, 0xca, 0xbd, 0x08, 0x24, 0xaa, 0x3d, 0x5a, 0x53, 0x48, 0xbf,
  0x78, 0x5a, 0xe9, 0x39, 0x6e, 0x30, 0x85, 0xbe, 0x09, 0x03, 0x85, 0xbb,
  0xdf, 0x61, 0xd4, 0x3e, 0xaa, 0x7d, 0xdc, 0x3c, 0x07, 0x43, 0xef, 0x3d,
  0x17, 0x93, 0x08, 0x3f, 0xc1, 0x74, 0xbf, 0x3d, 0x14, 0xaa, 0x8a, 0xbe,
  0x40, 0xa0, 0xa0, 0x3e, 0xb3, 0x0a, 0x92, 0xbd, 0x53, 0x5b, 0xb8, 0xbd,
  0x67, 0x63, 0x01, 0x3f, 0x0f, 0xbb, 0xe1, 0xbd, 0x3c, 0x1b, 0x54, 0xbe,
  0xce, 0xff, 0xc8, 0x3e, 0x1b, 0xe5, 0xef, 0x3c, 0x3d, 0x49, 0x19, 0x3e,
  0xdb, 0x81, 0x2e, 0x3e, 0x7a, 0xcb, 0xaf, 0x3c, 0xc7, 0x7d, 0x2c, 0xbe,
  0xc6, 0x50, 0x34, 0xbe, 0xfb, 0xba, 0xc7, 0xbe, 0xb0, 0xa2, 0x3f, 0xbe,
  0xbe, 0xad, 0xab, 0x3e, 0x6f, 0x4f, 0x97, 0xbe, 0x1d, 0x25, 0x8d, 0x3e,
  0x8a, 0x7c, 0x07, 0x3e, 0xdb, 0xec, 0x37, 0x3d, 0x1f, 0x23, 0xd4, 0xbe,
  0xc7, 0xfe, 0xa7, 0xbe, 0x91, 0xd5, 0x4b, 0xbd, 0xaa, 0x06, 0x9a, 0x3d,
  0x2d, 0x62, 0x21, 0xbe, 0x4a, 0x28, 0xf3, 0xbb, 0xf1, 0x49, 0x8c, 0x3d,
  0xd4, 0xe1, 0xff, 0x3d, 0xe0, 0x19, 0x85, 0xbe, 0x58, 0x4a, 0xb0, 0xbd,
  0x6a, 0x32, 0xba, 0x3e, 0xe2, 0x19, 0x76, 0x3e, 0xa2, 0x2e, 0xdb, 0xbc,
  0x36, 0x66, 0x4d, 0x3e, 0x20, 0xbe, 0x26, 0x3d, 0xbe, 0x22, 0xa9, 0xbc,
  0xcb, 0xbd, 0x63, 0x3d, 0xab, 0xe4, 0x39, 0xbd, 0x1a, 0x55, 0xb8, 0x3e,
  0x81, 0xff, 0x76, 0xbe, 0x84, 0xa2, 0x2e, 0xbd, 0x86, 0xc8, 0x1d, 0xbe,
  0x54, 0x6e, 0x81, 0xbe, 0x93, 0x2a, 0xe3, 0x3e, 0x23, 0xbd, 0x24, 0x3f,
  0x0e, 0xb5, 0xf5, 0x3d, 0x3b, 0x0c, 0x69, 0x3e, 0x23, 0x35, 0x99, 0xbd,
  0x65, 0x13, 0xde, 0x3c, 0xb9, 0x31, 0xc1, 0xbe, 0xb0, 0x71, 0x82, 0x3e,
  0xca, 0x15, 0xe9, 0xbe, 0x67, 0x6d, 0x83, 0x3e, 0xbd, 0x7d, 0xb8, 0xbd,
  0x32, 0xd1, 0x27, 0x3f, 0x16, 0x6e, 0x25, 0xbd, 0x1e, 0x98, 0xb8, 0xbe,
  0x1c, 0x5e, 0x51, 0xbf, 0xae, 0xdd, 0x26, 0x3e, 0xb0, 0xa2, 0xd0, 0x3e,
  0x15, 0xda, 0x75, 0x3e, 0xd5, 0xa7, 0x6c, 0x3e, 0xa3, 0xbb, 0x8c, 0xbd,
  0x93, 0x2c, 0xb7, 0x3e, 0x16, 0x3f, 0x99, 0xbe, 0xc2, 0x86, 0x0a, 0xbe,
  0xdd, 0x91, 0xf5, 0xbe, 0x40, 0x8c, 0x8d, 0x3e, 0xe2, 0xb4, 0xc2, 0x3c,
  0xbf, 0x7f, 0xfe, 0x3d, 0x20, 0x4c, 0x53, 0x3d, 0xc3, 0x19, 0x0b, 0x3e,
  0xb4, 0x90, 0x6e, 0x3c, 0x49, 0x7c, 0xc6, 0xbe, 0x4a, 0xa3, 0x62, 0xbc,
  0x1b, 0x4c, 0x19, 0x3f, 0x41, 0xee, 0x44, 0xbe, 0xbe, 0xb9, 0x31, 0x3e,
  0x9d, 0xc7, 0xa5, 0x3e, 0x00, 0x4d, 0x8a, 0xbd, 0x21, 0x83, 0x35, 0x3e,
  0x95, 0xd7, 0x70, 0x3e, 0x26, 0x23, 0x4c, 0x3e, 0x70, 0x91, 0x17, 0x3e,
  0x81, 0x86, 0x5e, 0x3e, 0x45, 0x05, 0x5a, 0xbd, 0xf2, 0x51, 0x26, 0x3e,
  0xe9, 0x5b, 0xcf, 0x3e, 0xed, 0x7c, 0xcc, 0x3c, 0x3e, 0x9e, 0x9e, 0x3e,
  0x44, 0x50, 0xd1, 0x3e, 0xd5, 0x24, 0x2d, 0x3e, 0x03, 0x2f, 0xfe, 0x3d,
  0xca, 0x95, 0x9c, 0x3e, 0x85, 0x65, 0xf9, 0xbd, 0xe8, 0xbb, 0xd2, 0x3e,
  0x0a, 0x7a, 0x80, 0x3e, 0x84, 0xbc, 0xcd, 0xbd, 0x11, 0x11, 0x6e, 0x3e,
  0x0a, 0x53, 0xf7, 0xbc, 0xc7, 0xd8, 0x3f, 0xbe, 0xf2, 0x16, 0xd4, 0x3d,
  0x3b, 0x67, 0xc0, 0xbc, 0x6c, 0x84, 0x6b, 0xbe, 0x4d, 0x2d, 0x92, 0xbe,
  0x93, 0x7b, 0x19, 0xbe, 0x92, 0xaf, 0x50, 0x3d, 0x78, 0xfa, 0xc0, 0xbe,
  0x1f, 0xd2, 0xda, 0xbe, 0xe9, 0xa8, 0x8f, 0x3d, 0xaf, 0xe0, 0x48, 0xbe,
  0x1c, 0xbd, 0xb5, 0xbd, 0xb4, 0xcb, 0xb1, 0x3b, 0x66, 0x79, 0xa7, 0x3e,
  0xc6, 0x61, 0x8a, 0x3d, 0xba, 0x01, 0x39, 0x3d, 0x7b, 0x9e, 0x82, 0xbd,
  0xe0, 0x62, 0x1a, 0x3e, 0x4a, 0x88, 0x2f, 0xbe, 0xcd, 0x39, 0xda, 0xbe,
  0xc9, 0x11, 0xee, 0xbe, 0xae, 0x72, 0x57, 0xbe, 0x8d, 0xc2, 0xd1, 0x3c,
  0x4b, 0xb6, 0x8f, 0xbe, 0x97, 0xb6, 0x38, 0xbe, 0x3c, 0xd7, 0xa9, 0x3b,
  0xa0, 0x4f, 0x46, 0x3e, 0x61, 0x7e, 0x55, 0xbd, 0xf2, 0x55, 0xb5, 0x3d,
  0xb8, 0xc4, 0xa9, 0x3d, 0x57, 0x94, 0x0a, 0xbe, 0x48, 0x77, 0xca, 0xbd,
  0x60, 0xb2, 0x74, 0x3d, 0x6f, 0x51, 0xef, 0xbd, 0x70, 0x89, 0x5e, 0x3d,
  0xaa, 0xda, 0x44, 0x3e, 0x88, 0x60, 0xc2, 0xbe, 0x73, 0xdf, 0x01, 0xbe,
  0xb1, 0x51, 0x0f, 0xbd, 0xc8, 0x04, 0x81, 0x3e, 0x8e, 0x98, 0xd2, 0xbe,
  0x3a, 0x22, 0x29, 0xbe, 0xeb, 0xf7, 0x91, 0xbe, 0x8d, 0xf7, 0x8a, 0xbd,
  0xc7, 0xfb, 0x49, 0x3e, 0x13, 0x21, 0x8a, 0x3d, 0x44, 0x71, 0x23, 0x3e,
  0x8e, 0x3b, 0xf5, 0xbd, 0x74, 0x9b, 0x7a, 0x3e, 0xa5, 0x67, 0x8c, 0xbc,
  0x8e, 0x5e, 0x63, 0xba, 0x1e, 0x9d, 0x5d, 0xbe, 0xbe, 0x22, 0x9d, 0xbd,
  0xa7, 0x4a, 0x70, 0x3d, 0x63, 0xcc, 0x47, 0x3e, 0x8f, 0xe7, 0xa8, 0xbe,
  0xf0, 0xc8, 0x00, 0xbe, 0x93, 0x25, 0xc2, 0xbd, 0x71, 0xdd, 0xc0, 0xbd,
  0x9d, 0x6b, 0x93, 0x3e, 0x97, 0x28, 0x58, 0x3d, 0x1c, 0x78, 0xda, 0xbe,
  0x5f, 0x15, 0x35, 0xbf, 0x4f, 0x8f, 0xb0, 0x3e, 0x4f, 0xbe, 0x94, 0xbc,
  0x24, 0x6a, 0xd8, 0xbe, 0x6b, 0xe1, 0xbd, 0x3d, 0x41, 0x9b, 0xef, 0xbd,
  0x75, 0x64, 0xf2, 0xbd, 0xac, 0x47, 0x77, 0xbe, 0x3e, 0x99, 0x5b, 0xbe,
  0xd6, 0x20, 0x42, 0x3e, 0x4a, 0xb9, 0x8c, 0xbd, 0x8f, 0xe5, 0x12, 0x3d,
  0xf2, 0x6b, 0xa8, 0xbd, 0x29, 0xd9, 0x33, 0xbe, 0x2d, 0xe2, 0x76, 0xbe,
  0x9f, 0xc0, 0x91, 0xbe, 0x9c, 0xe7, 0x95, 0x3c, 0x8e, 0xd6, 0xaa, 0xbd,
  0x72, 0xf5, 0x6d, 0xbe, 0xa6, 0xd7, 0xff, 0xbd, 0xfa, 0xec, 0x62, 0xbe,
  0x0f, 0xb4, 0x83, 0xbd, 0x0e, 0xa8, 0xc7, 0x3c, 0x93, 0xdb, 0x06, 0xbe,
  0x0d, 0xbc, 0xa4, 0xbe, 0x03, 0x51, 0x35, 0xbe, 0x55, 0x87, 0x85, 0xbd,
  0x8c, 0x48, 0xef, 0xbd, 0x04, 0xf3, 0x52, 0x3e, 0xc7, 0xa5, 0x8f, 0xbe,
  0xbb, 0xd8, 0xe8, 0xbd, 0x91, 0x8b, 0x0e, 0x3e, 0x54, 0xbd, 0x21, 0x3e,
  0x67, 0x85, 0x5b, 0xbf, 0x5e, 0x34, 0x28, 0x3d, 0xf9, 0xcf, 0xa5, 0xbe,
  0xc6, 0x50, 0x01, 0x3f, 0x02, 0x96, 0xc2, 0x3e, 0x08, 0x69, 0x79, 0xbe,
  0xeb, 0x8a, 0x11, 0x3f, 0x28, 0xdb, 0xcf, 0xbd, 0x53, 0xfb, 0x5b, 0xbe,
  0x0c, 0xec, 0x41, 0xbf, 0x44, 0xed, 0x8f, 0x3e, 0x29, 0x1d, 0xe4, 0x3e,
  0x55, 0xc6, 0x89, 0x3f, 0xc1, 0x71, 0x62, 0xbe, 0xd7, 0x7d, 0x58, 0x3d,
  0x93, 0xe9, 0x6c, 0xbf, 0x61, 0x65, 0x16, 0xbe, 0x63, 0x1d, 0x89, 0x3e,
  0xad, 0xd3, 0x06, 0x3f, 0x57, 0xfa, 0x61, 0xbd, 0x4d, 0x09, 0x38, 0xbe,
  0x24, 0xbc, 0xe4, 0xbd, 0x09, 0x72, 0xc2, 0xbb, 0x13, 0xe1, 0x7c, 0x3d,
  0xe4, 0x93, 0x66, 0xbf, 0x6e, 0xf5, 0x03, 0xbe, 0x17, 0xfe, 0xd6, 0x3d,
  0x99, 0xb4, 0x89, 0x3f, 0x5a, 0x98, 0xeb, 0xbc, 0x72, 0xdb, 0x13, 0x3e,
  0x8c, 0x9b, 0xec, 0xbd, 0xcc, 0x68, 0xc0, 0xbe, 0x07, 0x56, 0x37, 0xbe,
  0xa1, 0x34, 0xd7, 0xbe, 0xf5, 0x69, 0x78, 0xbe, 0x98, 0xc7, 0x19, 0x3d,
  0x7d, 0x6a, 0xf7, 0xbd, 0x9e, 0xb1, 0xa3, 0xbe, 0x70, 0x16, 0x06, 0xbe,
  0xec, 0x5d, 0xcf, 0x3c, 0xcd, 0x55, 0x07, 0xbe, 0x16, 0x33, 0xb8, 0xbe,
  0x3d, 0x0b, 0x43, 0xbe, 0x49, 0xbe, 0x5f, 0xbe, 0x9e, 0x3f, 0x3a, 0xbe,
  0x20, 0xc7, 0x4e, 0xbe, 0xcf, 0x68, 0x8e, 0xbe, 0xd5, 0x35, 0xb1, 0x3d,
  0x56, 0x43, 0x08, 0xbc, 0x8f, 0x56, 0x01, 0xbe, 0x1b, 0x39, 0x0f, 0xbe,
  0x69, 0x35, 0xbf, 0xbe, 0xd7, 0xd4, 0x80, 0xbe, 0x58, 0xab, 0x95, 0xbe,
  0xf6, 0xb7, 0x57, 0x3c, 0x1f, 0x60, 0xa5, 0xbe, 0x0d, 0xda, 0x92, 0x3b,
  0x6b, 0x8f, 0xc8, 0xbd, 0x4a, 0x3e, 0xaa, 0xbe, 0xe5, 0x58, 0x5f, 0x3d,
  0xc9, 0x94, 0x85, 0x3d, 0xf8, 0x86, 0x45, 0xbe, 0x23, 0x0d, 0xa1, 0xbc,
  0xa2, 0x27, 0xd8, 0x3d, 0x96, 0x6f, 0x81, 0x3d, 0x6d, 0xa6, 0x9e, 0x3e,
  0x3e, 0xae, 0x33, 0x3e, 0x17, 0x06, 0x1b, 0x3d, 0xbc, 0x93, 0x67, 0x3d,
  0xa0, 0xf8, 0x48, 0x3e, 0x83, 0xd4, 0xbf, 0xbd, 0xd2, 0xaa, 0x73, 0x3e,
  0x70, 0xa3, 0x79, 0x3e, 0xcc, 0x8f, 0x55, 0xbe, 0xc4, 0xfc, 0x0d, 0xbd,
  0xc8, 0x28, 0x86, 0xbd, 0x1f, 0x26, 0x98, 0xbe, 0xa3, 0xb8, 0xa3, 0x3d,
  0x18, 0xbf, 0x23, 0x3e, 0xad, 0x5b, 0xeb, 0x3d, 0xd3, 0xed, 0xc6, 0x3d,
  0xda, 0x5e, 0x83, 0xbe, 0xa4, 0xcd, 0x1b, 0xbd, 0xe9, 0x0a, 0xb0, 0x3e,
  0x8f, 0xbf, 0x88, 0x3e, 0x5a, 0xcb, 0x8a, 0xbe, 0xc7, 0xcb, 0xb2, 0x3e,
  0xd9, 0xb4, 0x34, 0x3e, 0x40, 0xca, 0x78, 0xbd, 0xbd, 0x48, 0x96, 0x3d,
  0x0a, 0xdb, 0xb5, 0xbe, 0x05, 0x8a, 0x56, 0x3e, 0x9c, 0xb5, 0x2f, 0xbe,
  0x8e, 0x5f, 0x3c, 0xbd, 0x2f, 0x5f, 0x67, 0xbe, 0xc2, 0xa2, 0x80, 0xbc,
  0xbc, 0x6e, 0xaf, 0x3d, 0x66, 0xec, 0x27, 0x3e, 0xee, 0x54, 0x66, 0xbc,
  0xbb, 0x71, 0x30, 0x3d, 0xb9, 0x08, 0x12, 0x3e, 0x20, 0x2f, 0xcc, 0xbd,
  0x55, 0x30, 0xfe, 0xbe, 0xb5, 0x25, 0x39, 0xbe, 0x6e, 0xf7, 0xe3, 0x3d,
  0x94, 0xbf, 0xb3, 0xbd, 0x9b, 0xcc, 0xd1, 0x3c, 0x65, 0xe2, 0xc6, 0xbe,
  0x01, 0x7a, 0x20, 0xbe, 0xd1, 0xf6, 0x8f, 0xbe, 0xba, 0xd4, 0x58, 0xbe,
  0x67, 0xe0, 0x29, 0xbe, 0xff, 0xfe, 0x14, 0x3e, 0xd6, 0x95, 0xd3, 0xbe,
  0x3a, 0x53, 0x43, 0x3d, 0xe3, 0xac, 0x6b, 0xbe, 0x6f, 0xe5, 0x76, 0xbe,
  0xb4, 0x86, 0x6a, 0xbe, 0xce, 0x52, 0x98, 0xbe, 0x97, 0x8e, 0xca, 0x3c,
  0x1f, 0xdc, 0x0c, 0xbf, 0x0c, 0x88, 0xa7, 0x3e, 0xf5, 0xb0, 0x39, 0x3e,
  0x57, 0x64, 0xe6, 0x3e, 0x18, 0x24, 0x21, 0xbe, 0x54, 0x5b, 0x15, 0xbf,
  0xd2, 0x1a, 0x5e, 0xbe, 0x82, 0xa1, 0xee, 0xbd, 0x46, 0x97, 0x8b, 0x3e,
  0x27, 0x96, 0x17, 0xbe, 0x09, 0x2c, 0x0b, 0x3e, 0x9b, 0x2c, 0x91, 0x3d,
  0x1b, 0xfe, 0xbb, 0x3e, 0x71, 0xe0, 0xde, 0xbe, 0x79, 0x97, 0xb9, 0xbd,
  0xda, 0xe8, 0x23, 0x3b, 0xcc, 0x27, 0x87, 0x3e, 0xca, 0x27, 0x8e, 0x3e,
  0xbc, 0xe5, 0xb6, 0x3e, 0x58, 0x8e, 0x6f, 0x3e, 0xc6, 0xd6, 0xb9, 0xbe,
  0xef, 0xd4, 0x9f, 0x3d, 0xd1, 0xa0, 0xbb, 0xbe, 0x11, 0xf5, 0xbc, 0x3e,
  0x6d, 0x75, 0x9f, 0x3d, 0xb9, 0x84, 0x16, 0x3e, 0x01, 0x0d, 0xb2, 0xbe,
  0x53, 0xdc, 0x99, 0xbe, 0x1c, 0x48, 0x85, 0x3d, 0x5f, 0xc0, 0x44, 0x3d,
  0xbb, 0x62, 0x0d, 0x3f, 0x53, 0xd3, 0x03, 0x3e, 0x98, 0x63, 0x56, 0x3f,
  0x7a, 0x28, 0x6b, 0x3f, 0x6b, 0x41, 0x2a, 0x3e, 0xc1, 0xec, 0x0e, 0x3e,
  0xbb, 0xc0, 0x12, 0xbe, 0x6c, 0x3c, 0x00, 0x3e, 0x2e, 0xec, 0x31, 0xbf,
  0xd7, 0xd7, 0x7d, 0xbf, 0x2a, 0x11, 0x9e, 0x3d, 0x62, 0x1e, 0x2e, 0xbf,
  0xaa, 0x2b, 0xcf, 0xbb, 0xa6, 0x9a, 0x5a, 0xbe, 0xa6, 0x87, 0x33, 0x3f,
  0x37, 0xac, 0x13, 0x3e, 0x52, 0x93, 0x80, 0xbe, 0x37, 0x5d, 0x49, 0x3f,
  0x15, 0x54, 0xdd, 0x3e, 0x50, 0xfa, 0xcc, 0x3d, 0xf8, 0xa8, 0xf7, 0x3e,
  0x5e, 0x0b, 0x64, 0xbd, 0x8c, 0x5d, 0x59, 0x3e, 0x2d, 0x08, 0xbb, 0x3d,
  0xf6, 0x69, 0xaf, 0x3d, 0xa6, 0x07, 0xda, 0xbc, 0x66, 0xd6, 0xec, 0xbe,
  0xf4, 0xcc, 0xb5, 0x3d, 0xd7, 0x5a, 0x9e, 0xbe, 0xc4, 0xaf, 0xc0, 0xbd,
  0x51, 0x4a, 0x4f, 0xbf, 0x4f, 0xc2, 0x04, 0x3e, 0xa9, 0x6c, 0xf0, 0xbd,
  0x17, 0xe5, 0x1c, 0xbf, 0x10, 0x8b, 0xd3, 0x3d, 0x7f, 0x0d, 0x99, 0x3e,
  0x1f, 0xc1, 0x08, 0xbf, 0xac, 0xa0, 0xb4, 0xbb, 0xce, 0x75, 0xee, 0xbd,
  0x62, 0x14, 0x96, 0xbf, 0xc4, 0x07, 0x57, 0xbe, 0x06, 0xd3, 0xaa, 0xbd,
  0xd7, 0x97, 0x6d, 0xbf, 0xd9, 0x84, 0xf2, 0x3d, 0xb2, 0x97, 0x41, 0x3e,
  0x85, 0x97, 0x26, 0xbf, 0x70, 0x73, 0x27, 0x3e, 0x6c, 0x6b, 0x9d, 0x3e,
  0x43, 0x59, 0x79, 0xbf, 0x21, 0xfa, 0xe0, 0x3d, 0xa9, 0x1f, 0xf9, 0xbb,
  0x6f, 0xae, 0x09, 0xbf, 0x11, 0xd4, 0x43, 0x3e, 0xb1, 0x52, 0xc3, 0x3e,
  0xa3, 0xdf, 0x84, 0xbe, 0x38, 0x7b, 0x3b, 0x3d, 0xe7, 0xe5, 0x52, 0xbe,
  0xdc, 0x8f, 0xdb, 0xbe, 0x16, 0x22, 0x4f, 0xbd, 0xd2, 0xa6, 0xb6, 0xbe,
  0xf7, 0xb2, 0x59, 0x3e, 0x6d, 0xef, 0x93, 0xbd, 0xf0, 0x74, 0x5e, 0xbe,
  0xa4, 0x03, 0xc3, 0x3e, 0x88, 0x4d, 0xe5, 0x3c, 0xa6, 0x29, 0x9a, 0x3d,
  0xed, 0x93, 0x68, 0x3e, 0x49, 0x36, 0x67, 0x3e, 0x15, 0x13, 0xef, 0x3d,
  0x31, 0xaf, 0x6d, 0x3d, 0xd7, 0x0b, 0xc2, 0x3e, 0x28, 0x9d, 0x81, 0xbe,
  0x9e, 0xd6, 0x8b, 0xbe, 0x2d, 0x6f, 0x9d, 0xbe, 0x56, 0xcb, 0xab, 0xbd,
  0x2a, 0xbd, 0xbf, 0xbe, 0xa8, 0x7f, 0x0d, 0x3e, 0x93, 0x0d, 0x0c, 0x3e,
  0xc0, 0x16, 0x2a, 0xbf, 0x88, 0xda, 0xe4, 0x3e, 0x18, 0xc8, 0x77, 0xbe,
  0x97, 0x17, 0x41, 0xbe, 0x37, 0xaa, 0x11, 0xbc, 0x3a, 0x27, 0x10, 0xbe,
  0x6e, 0x18, 0x95, 0xbe, 0x5c, 0x8c, 0xa6, 0xbe, 0xd4, 0xa8, 0x0d, 0xbe,
  0xd2, 0xdf, 0x0e, 0x3e, 0x04, 0xc4, 0xa9, 0xbe, 0x8a, 0xd2, 0xcc, 0xbe,
  0xbb, 0x54, 0x1d, 0xbe, 0x1d, 0x14, 0x4f, 0xbd, 0x04, 0xbc, 0x69, 0x3e,
  0xdb, 0xd0, 0x01, 0x3f, 0x01, 0x28, 0x55, 0x3e, 0xfe, 0x47, 0x51, 0xbf,
  0xbb, 0x88, 0xee, 0x3e, 0x14, 0xef, 0x9a, 0xbe, 0xff, 0x50, 0x5a, 0x3e,
  0x97, 0x17, 0xc6, 0xbd, 0x24, 0x3d, 0x1b, 0xbe, 0x33, 0xf1, 0xe3, 0x3d,
  0xd5, 0x49, 0xaa, 0x3e, 0x5f, 0x38, 0x64, 0xbd, 0xab, 0xa8, 0x30, 0x3e,
  0xd6, 0x4a, 0xd4, 0xbd, 0xb6, 0xe2, 0x26, 0x3e, 0x4c, 0xd9, 0xb6, 0x3e,
  0xfc, 0xcc, 0xa0, 0xbd, 0x65, 0x61, 0x9d, 0xbd, 0xf3, 0xe9, 0x5b, 0x3e,
  0x97, 0x4d, 0x07, 0x3e, 0xc7, 0xc9, 0x4d, 0x3e, 0xcd, 0x6b, 0xaa, 0x3d,
  0xeb, 0xb3, 0x37, 0xbd, 0xf0, 0xf0, 0x85, 0xbd, 0x09, 0xd6, 0xee, 0xbd,
  0x07, 0xe8, 0x62, 0xbe, 0xaf, 0x08, 0x50, 0x3e, 0xa6, 0xce, 0x0b, 0xbf,
  0x4e, 0x23, 0x98, 0xbe, 0xf7, 0x73, 0x94, 0x3e, 0x71, 0x88, 0x66, 0x3e,
  0xfb, 0x88, 0xcf, 0xbe, 0x49, 0xc1, 0x2f, 0xbd, 0x18, 0x0a, 0x10, 0x3e,
  0x13, 0x08, 0xfc, 0x3d, 0x16, 0xbd, 0x2f, 0xbe, 0xa9, 0x74, 0xea, 0x3c,
  0x92, 0xb7, 0x4d, 0xbe, 0x0a, 0x0f, 0x85, 0xbc, 0x37, 0x88, 0x02, 0x3f,
  0x5b, 0x99, 0x83, 0xbe, 0xd2, 0xb2, 0x2d, 0x3d, 0x57, 0x8a, 0x2b, 0x3d,
  0xe7, 0x3d, 0x44, 0x3f, 0xcc, 0xa0, 0xb8, 0xbe, 0x7e, 0xe1, 0x0f, 0x3e,
  0x05, 0x03, 0x22, 0xbe, 0x4b, 0xf9, 0x73, 0xbd, 0xe2, 0xa7, 0x22, 0x3d,
  0xf3, 0x45, 0x0d, 0x3e, 0xcb, 0xdc, 0x86, 0x3e, 0x36, 0x5e, 0x4a, 0x3e,
  0xbf, 0x30, 0x98, 0xbe, 0xdc, 0xb0, 0x8f, 0x3d, 0xfd, 0xf7, 0x2a, 0xbe,
  0xe4, 0x17, 0x33, 0x3f, 0x92, 0x4e, 0x46, 0x3b, 0x06, 0x9b, 0x9f, 0x3d,
  0xbe, 0xf7, 0x06, 0xbe, 0x5c, 0xf0, 0x20, 0x3d, 0x2f, 0x6d, 0x1a, 0x3c,
  0x43, 0x59, 0x24, 0xbe, 0xe6, 0xe2, 0x88, 0xbd, 0x8f, 0x35, 0x41, 0xbe,
  0xc5, 0x8e, 0x96, 0xbe, 0x10, 0x4f, 0x4a, 0x3e, 0x3e, 0x29, 0xfb, 0xbd,
  0x38, 0x47, 0xc9, 0xbd, 0x67, 0xf2, 0x94, 0x3d, 0xf1, 0x99, 0xa0, 0xbe,
  0x05, 0x01, 0xc7, 0xbe, 0x59, 0x2b, 0x7b, 0x3d, 0xa1, 0xb1, 0x9f, 0xbd,
  0x9d, 0x64, 0x92, 0xbe, 0x1d, 0x4e, 0x4c, 0xbe, 0x14, 0x2a, 0xa3, 0xbe,
  0xdf, 0x16, 0x75, 0xbe, 0x69, 0xc2, 0x85, 0xbe, 0x62, 0x78, 0xa6, 0xbe,
  0xc6, 0x2d, 0xa2, 0xbd, 0xc8, 0x4a, 0x5c, 0xbd, 0xca, 0x1e, 0x84, 0xbe,
  0xd6, 0x6b, 0x86, 0xbe, 0xc6, 0x20, 0x1f, 0xbe, 0xe4, 0x21, 0x31, 0xbe,
  0xe3, 0x88, 0xf7, 0xbd, 0x9b, 0x02, 0x92, 0x3e, 0xc7, 0xb0, 0x01, 0xbe,
  0x9d, 0x12, 0x43, 0xbf, 0x51, 0xfa, 0x92, 0xbe, 0x58, 0x6c, 0x90, 0x3d,
  0xb7, 0x32, 0x04, 0xbe, 0x51, 0x29, 0xc3, 0x3c, 0xb6, 0xbc, 0x27, 0x3e,
  0x03, 0x27, 0x83, 0xbe, 0xf8, 0xe5, 0xc8, 0x3e, 0x24, 0x33, 0xa7, 0xbd,
  0x14, 0xe7, 0x15, 0xbe, 0xe2, 0x64, 0x3b, 0x3d, 0x9e, 0x2f, 0x92, 0x3d,
  0x58, 0x34, 0xdd, 0xbe, 0xff, 0x3c, 0xb4, 0xbe, 0x6b, 0xc8, 0x56, 0x3d,
  0xee, 0xb9, 0x75, 0x3e, 0x9d, 0x75, 0x2b, 0x3d, 0xd8, 0x9a, 0xfc, 0x3d,
  0x49, 0x64, 0xa2, 0x3e, 0x14, 0xea, 0x7e, 0x3c, 0xef, 0xe3, 0x9b, 0xbe,
  0xc7, 0xa9, 0x87, 0x3e, 0x69, 0x16, 0xbe, 0x3d, 0x04, 0x37, 0x2a, 0xbd,
  0xb2, 0x2c, 0xa8, 0x3c, 0x55, 0x65, 0x3e, 0xbe, 0x84, 0x98, 0x0c, 0xbd,
  0x80, 0x12, 0x0d, 0x3f, 0x50, 0x9d, 0xa3, 0x3e, 0x40, 0x04, 0x37, 0xbe,
  0x73, 0x6d, 0xf6, 0x3e, 0x50, 0xc6, 0x9d, 0xbe, 0x46, 0x0f, 0xde, 0x3c,
  0x58, 0x40, 0x95, 0xbe, 0x7a, 0xbc, 0x36, 0xbe, 0xf7, 0x2a, 0x44, 0x3e,
  0x92, 0x82, 0xe8, 0xbd, 0x33, 0x50, 0x30, 0xbe, 0x27, 0xa7, 0x21, 0x3e,
  0xc8, 0xc2, 0x77, 0xbe, 0x70, 0xe3, 0x2d, 0xbe, 0x01, 0x43, 0x66, 0x3e,
  0x6a, 0xe4, 0xf9, 0x3c, 0x86, 0x8f, 0xde, 0x3d, 0xfd, 0xfc, 0xbc, 0xbc,
  0x00, 0xdc, 0x21, 0x3e, 0x17, 0x53, 0x25, 0x3c, 0x2c, 0x4b, 0xc8, 0xbd,
  0x0d, 0xec, 0x9c, 0xbe, 0x21, 0x04, 0x9f, 0x3e, 0x9c, 0x50, 0x22, 0x3e,
  0xc6, 0xdb, 0xcf, 0x3e, 0x96, 0x15, 0x21, 0xbd, 0xb7, 0xab, 0x23, 0x3e,
  0xfa, 0xa7, 0x02, 0xbf, 0xde, 0x05, 0x01, 0x3d, 0x4b, 0xa8, 0xaf, 0x3e,
  0xbc, 0x0f, 0x08, 0xbe, 0xd5, 0xe8, 0x95, 0x3e, 0xbc, 0x2c, 0x05, 0x3e,
  0x4e, 0x51, 0x88, 0x3d, 0xa4, 0x12, 0xea, 0xbd, 0x28, 0x84, 0x01, 0x3e,
  0x64, 0xb6, 0xa1, 0xbd, 0x9f, 0x15, 0xba, 0xbe, 0xfb, 0x83, 0xb6, 0x3e,
  0x59, 0xef, 0xae, 0xbe, 0xcf, 0x5f, 0xd1, 0xbd, 0x54, 0x00, 0xab, 0xbd,
  0xf4, 0x35, 0xc4, 0xbd, 0xac, 0x0d, 0x28, 0x3e, 0xa0, 0xbd, 0xbc, 0xbe,
  0xf0, 0x7e, 0xeb, 0xbe, 0x65, 0x48, 0x98, 0xbe, 0x51, 0x37, 0x83, 0xbe,
  0x76, 0x70, 0x21, 0xbc, 0xa4, 0xb4, 0xda, 0x3d, 0x95, 0xbf, 0x72, 0x3d,
  0x22, 0xe2, 0x92, 0xbe, 0xfb, 0x76, 0x7d, 0xbe, 0xc7, 0x9c, 0x20, 0xbe,
  0x2e, 0xb8, 0xb4, 0xbe, 0x3b, 0xd0, 0xb2, 0xbd, 0x9f, 0x8d, 0xe0, 0xbd,
  0x6a, 0xf4, 0xd9, 0xbd, 0x42, 0x48, 0x62, 0x3e, 0xa3, 0xb9, 0x42, 0xbd,
  0x29, 0x78, 0xa3, 0xbe, 0xf3, 0x83, 0xa6, 0xbd, 0x3c, 0xac, 0x79, 0xbd,
  0x88, 0xb2, 0x0d, 0xbd, 0x90, 0xd9, 0xfc, 0x3c, 0xbc, 0x36, 0x13, 0x3e,
  0xaa, 0x47, 0x77, 0x3e, 0x00, 0x11, 0xa0, 0xbd, 0xf4, 0x78, 0xc6, 0x3d,
  0x54, 0x26, 0x09, 0xbe, 0x8a, 0x64, 0x48, 0x3e, 0xfe, 0x3a, 0x7b, 0xbe,
  0x88, 0xb7, 0x56, 0x3d, 0x5c, 0xca, 0xbf, 0x3d, 0x69, 0x15, 0x54, 0xbe,
  0xc8, 0x26, 0x53, 0x3d, 0xe0, 0xd0, 0xdd, 0x3c, 0x58, 0x3e, 0x6f, 0xbd,
  0xce, 0xb7, 0x61, 0x3e, 0xb8, 0x51, 0x0a, 0x3e, 0x7e, 0x38, 0x12, 0xbe,
  0xa6, 0x44, 0xfe, 0xbd, 0x20, 0x87, 0xd0, 0x3d, 0xc8, 0xdf, 0x41, 0xbe,
  0xf0, 0x5b, 0x68, 0x3e, 0x24, 0x84, 0x6e, 0x3e, 0xe4, 0x12, 0x61, 0x3e,
  0x20, 0x22, 0x51, 0xbe, 0x6e, 0x03, 0x58, 0x3e, 0xd8, 0xd4, 0x3a, 0x3d,
  0x9f, 0xb3, 0x5c, 0xbe, 0x8e, 0xf7, 0x52, 0x3e, 0xd4, 0xa3, 0x03, 0xbe,
  0x55, 0x5e, 0x3e, 0xbf, 0xe7, 0x8a, 0x84, 0xbe, 0x7e, 0xe2, 0x79, 0x3f,
  0x9e, 0x93, 0x91, 0x3f, 0x09, 0x24, 0x44, 0x3e, 0xd0, 0x28, 0x6b, 0xbe,
  0xb4, 0x8e, 0x90, 0x39, 0xf6, 0xc0, 0x01, 0xbc, 0xac, 0xf8, 0xfc, 0xbe,
  0x93, 0x1d, 0xc1, 0x3d, 0x90, 0xc9, 0xf9, 0x3c, 0x48, 0xaf, 0xb8, 0xbd,
  0x06, 0xcf, 0xd8, 0x3e, 0x7f, 0xdd, 0xec, 0xbc, 0x67, 0xac, 0xbd, 0x3e,
  0x3b, 0x78, 0x0d, 0xbf, 0x04, 0x4b, 0x2e, 0x3e, 0xe7, 0xab, 0x6f, 0x3f,
  0x3d, 0xa6, 0xba, 0x3e, 0xf5, 0xdd, 0x73, 0x3e, 0x0b, 0x22, 0x81, 0xbe,
  0xef, 0xe5, 0xbd, 0xbe, 0xba, 0xb7, 0xf6, 0x3d, 0x83, 0xa7, 0xa9, 0xbe,
  0x89, 0x26, 0xec, 0x3e, 0x83, 0x67, 0x5c, 0xbe, 0xef, 0x88, 0x12, 0x3e,
  0x71, 0x1a, 0x0e, 0xbf, 0x98, 0x1d, 0x6f, 0xbe, 0xec, 0xf4, 0xb3, 0x3e,
  0x3f, 0x6c, 0x83, 0x3e, 0x5f, 0x12, 0xdd, 0xbd, 0x52, 0x6e, 0xa4, 0x3e,
  0xbd, 0x17, 0xd6, 0x3e, 0x66, 0x10, 0xe8, 0x3d, 0x46, 0x68, 0x3c, 0x3d,
  0xba, 0xb7, 0x65, 0x3e, 0x6f, 0xf1, 0x93, 0x3d, 0x08, 0x6a, 0x23, 0x3e,
  0xe7, 0xd9, 0x43, 0xbc, 0x0d, 0x15, 0x67, 0xbe, 0x1a, 0x20, 0x95, 0x3d,
  0x2d, 0x49, 0x3a, 0x3e, 0xc0, 0x25, 0x64, 0x3c, 0x47, 0x08, 0xf4, 0xbd,
  0xd2, 0x8a, 0x4e, 0xbc, 0x81, 0xd9, 0x74, 0xbe, 0xfe, 0xb1, 0x94, 0x3d,
  0xfd, 0x3d, 0xcd, 0xbd, 0xd8, 0x7e, 0xa8, 0xbb, 0xb1, 0xc2, 0x13, 0x3f,
  0xf0, 0x7b, 0xb4, 0x3e, 0x14, 0x75, 0x65, 0x3d, 0x58, 0x9d, 0x4f, 0x3e,
  0xc1, 0x4a, 0xd7, 0x3e, 0xb2, 0xf5, 0xac, 0x3d, 0xca, 0xa7, 0x9d, 0x3e,
  0x6d, 0x6b, 0x30, 0x3e, 0x3d, 0xd0, 0x91, 0xbe, 0x34, 0x01, 0xf3, 0x3d,
  0xbf, 0x98, 0x55, 0x3e, 0xfd, 0x70, 0xa7, 0xbe, 0x5d, 0x23, 0x82, 0x3e,
  0xc4, 0x6b, 0xb7, 0x3e, 0x57, 0xda, 0x4a, 0xbe, 0xec, 0x34, 0xc8, 0xbd,
  0x2f, 0xaa, 0x74, 0x3e, 0xbd, 0x1d, 0xab, 0xbd, 0xee, 0xe0, 0x09, 0xbd,
  0xf1, 0x2f, 0xcb, 0x3e, 0x97, 0x8c, 0x9e, 0xbd, 0xda, 0xb7, 0xe8, 0x3d,
  0xf5, 0x9d, 0x12, 0x3e, 0x4f, 0x79, 0xc1, 0x3d, 0xb1, 0xf9, 0xcb, 0xbd,
  0x50, 0xa9, 0x67, 0x3e, 0xfa, 0x23, 0x64, 0xbe, 0xa7, 0x9f, 0xaf, 0xba,
  0x9c, 0x8f, 0x0b, 0x3e, 0xb8, 0xcf, 0x48, 0x3e, 0x17, 0x2a, 0x36, 0x3e,
  0x7e, 0x18, 0x59, 0x3d, 0xcb, 0x44, 0x05, 0x3e, 0xa5, 0xad, 0x34, 0x3e,
  0xba, 0x29, 0x5e, 0x3e, 0x0e, 0xb3, 0x21, 0xbe, 0x27, 0x1a, 0x90, 0x3e,
  0xcc, 0x08, 0xf9, 0xbd, 0x2a, 0xde, 0x2c, 0xbe, 0x77, 0xa8, 0x72, 0xbe,
  0xe9, 0x8d, 0xf1, 0x3c, 0x6a, 0x82, 0x53, 0xbe, 0x3e, 0x3a, 0x60, 0xbd,
  0x4e, 0xe2, 0x27, 0xbe, 0x60, 0xec, 0x78, 0xbc, 0x6f, 0xe0, 0xdd, 0x3d,
  0x04, 0xa7, 0x82, 0xbd, 0x2a, 0x0f, 0xaa, 0x3d, 0x6c, 0x9e, 0x71, 0xbe,
  0xab, 0xb9, 0x0e, 0x3e, 0xbf, 0x39, 0x47, 0x3e, 0xee, 0x80, 0x55, 0x3e,
  0x5b, 0xeb, 0x41, 0x3e, 0x07, 0xc5, 0x6f, 0x3e, 0x90, 0xb5, 0x1a, 0x3e,
  0x98, 0x4a, 0x74, 0x3e, 0x85, 0x3e, 0xd6, 0x3b, 0x00, 0x38, 0xb6, 0x3c,
  0xf1, 0x93, 0xc7, 0xbd, 0x4c, 0x47, 0x3c, 0x3e, 0x16, 0x79, 0x8e, 0x3d,
  0x98, 0x65, 0x42, 0x3e, 0x96, 0xf6, 0xb4, 0x3d, 0xdd, 0x39, 0x36, 0xbe,
  0xa0, 0xbe, 0x5d, 0xbe, 0xb1, 0x54, 0xad, 0x3c, 0xbf, 0xd2, 0xe1, 0xbd,
  0xb3, 0x83, 0x71, 0xbe, 0x7b, 0x0c, 0x5a, 0x3e, 0x36, 0x57, 0x7d, 0x3e,
  0x2d, 0x89, 0x12, 0x3c, 0x5d, 0xa3, 0x23, 0x3e, 0x8e, 0xba, 0x00, 0xbf,
  0x9f, 0x6b, 0x0e, 0xbf, 0xc2, 0x17, 0x2c, 0xbe, 0x69, 0x5f, 0x69, 0x3e,
  0x4d, 0x8d, 0x12, 0xbd, 0xcf, 0xfb, 0x15, 0xbd, 0xd5, 0xb1, 0x6b, 0xbb,
  0x84, 0x72, 0x00, 0xbe, 0x14, 0x1c, 0x7a, 0xbd, 0x0b, 0xd8, 0xbd, 0xbe,
  0xf0, 0x58, 0xd0, 0xbe, 0x78, 0x84, 0xad, 0xbe, 0x7f, 0x94, 0xdf, 0xbe,
  0x82, 0x2f, 0x10, 0xbe, 0x1b, 0xe7, 0x10, 0x3d, 0x61, 0xea, 0xd1, 0xbe,
  0x16, 0xb4, 0x9b, 0xbe, 0xc5, 0xd2, 0xb2, 0xbe, 0xe4, 0x02, 0xa7, 0xbe,
  0x4f, 0x59, 0x37, 0xbe, 0x73, 0xe7, 0x30, 0x3e, 0x1e, 0x7c, 0xdc, 0xbd,
  0x39, 0x76, 0x8b, 0x3d, 0x94, 0xb9, 0x31, 0xbe, 0x64, 0x47, 0x7f, 0xbd,
  0x39, 0xe0, 0x71, 0x3d, 0x18, 0x0e, 0xdc, 0xbd, 0x71, 0x91, 0x95, 0xbe,
  0xe7, 0x83, 0xec, 0x3e, 0x74, 0x62, 0xb7, 0x3a, 0x5d, 0xc1, 0x3d, 0x3d,
  0xc4, 0x68, 0xbb, 0xbe, 0x60, 0xf4, 0xa6, 0x3e, 0xff, 0x07, 0xc1, 0xbd,
  0x75, 0xfd, 0x0b, 0x3f, 0xed, 0x00, 0x77, 0xbe, 0xe4, 0xaf, 0x65, 0x3e,
  0x8c, 0x35, 0x48, 0xbd, 0x00, 0x83, 0xb9, 0x3d, 0x75, 0x3f, 0xc7, 0x3e,
  0x02, 0xf8, 0xec, 0xbd, 0xfe, 0x13, 0x8e, 0x3d, 0x8e, 0xfa, 0x88, 0x3e,
  0x8c, 0x90, 0x0c, 0x3f, 0x26, 0x21, 0x5f, 0x3c, 0x6d, 0x0f, 0x1c, 0x3f,
  0xb0, 0x36, 0x28, 0xbf, 0xc2, 0xcc, 0xe5, 0x3d, 0x9a, 0x77, 0xdb, 0x3e,
  0x21, 0x2f, 0xca, 0xbd, 0xad, 0x72, 0x4c, 0xbc, 0x10, 0xaa, 0x28, 0x3d,
  0x9f, 0x52, 0x0d, 0x3d, 0xcc, 0x0f, 0x23, 0xbe, 0x31, 0x4a, 0x82, 0x3e,
  0xea, 0x80, 0xc2, 0x3e, 0xc1, 0x14, 0x90, 0xbe, 0xdd, 0x80, 0x9f, 0x3e,
  0xe1, 0x52, 0x0f, 0x3f, 0x7d, 0xd2, 0x93, 0xbe, 0x9a, 0x2e, 0xf3, 0x3d,
  0x27, 0x8a, 0xb7, 0x3e, 0xf5, 0xec, 0x0d, 0x3c, 0x49, 0x35, 0x11, 0x3d,
  0x86, 0xe7, 0x4c, 0x3e, 0x92, 0x36, 0xae, 0x3d, 0x1d, 0x1f, 0x22, 0xbe,
  0xc6, 0xb0, 0x60, 0x3e, 0x6f, 0x94, 0x6e, 0x3d, 0x11, 0x07, 0x8d, 0x3e,
  0x95, 0x56, 0xd0, 0x3c, 0x78, 0x4f, 0x23, 0xbe, 0x0e, 0x32, 0xd3, 0x3e,
  0x22, 0x94, 0x4b, 0x3d, 0x7b, 0xbb, 0x60, 0xbe, 0x4b, 0xe1, 0x72, 0x3e,
  0x60, 0xa9, 0x64, 0x3e, 0x67, 0x56, 0x31, 0x3e, 0x67, 0x17, 0xd6, 0x3d,
  0xd3, 0x9a, 0x77, 0x3d, 0xf1, 0x4f, 0xea, 0x3d, 0x9b, 0x45, 0xba, 0x3e,
  0x51, 0x52, 0xa8, 0x3d, 0xec, 0x03, 0x14, 0xbe, 0x49, 0x18, 0x9b, 0x3d,
  0x05, 0x1d, 0x50, 0x3e, 0xbd, 0x15, 0x57, 0xbe, 0x4e, 0x7a, 0x91, 0xbe,
  0x8a, 0x9f, 0xa6, 0xbf, 0x59, 0x4d, 0x9a, 0x3e, 0xa8, 0xbd, 0x4e, 0xbd,
  0xe7, 0x95, 0x47, 0x3f, 0xf1, 0x3b, 0x1f, 0x3d, 0x21, 0x9e, 0x74, 0xbe,
  0xdc, 0x66, 0x89, 0xbe, 0x28, 0x43, 0x65, 0xbe, 0x8a, 0x76, 0x08, 0xbe,
  0x47, 0x5d, 0x31, 0xbd, 0x3f, 0x0c, 0x3a, 0x3e, 0x56, 0xd7, 0xa8, 0x3e,
  0x64, 0xac, 0x51, 0x3b, 0xa2, 0x45, 0x63, 0xbd, 0xe1, 0xcd, 0x7b, 0x3e,
  0xd1, 0x4e, 0x4f, 0xbf, 0x01, 0x38, 0xa5, 0x3c, 0xb4, 0xac, 0xaf, 0xbe,
  0xd7, 0x53, 0x80, 0x3f, 0x3e, 0xfc, 0x4a, 0xbe, 0x18, 0x12, 0xb3, 0xbe,
  0xb5, 0xcc, 0xa8, 0xbe, 0xec, 0x60, 0x1f, 0xbe, 0xbd, 0x28, 0x44, 0xbb,
  0xd9, 0x41, 0xea, 0x3d, 0x13, 0x23, 0xa3, 0x3e, 0x03, 0x5e, 0x04, 0x3f,
  0x9e, 0x2b, 0x87, 0x3e, 0xd0, 0xe6, 0x57, 0xbe, 0x39, 0xce, 0xd9, 0xbe,
  0x5c, 0xbb, 0x8b, 0xbd, 0x09, 0x47, 0x8b, 0xbd, 0x46, 0x2d, 0xa0, 0xbe,
  0xf5, 0x43, 0xb7, 0xbf, 0xc3, 0x03, 0x31, 0xbe, 0xfd, 0xc4, 0xc7, 0x3e,
  0x78, 0xcb, 0x39, 0x3f, 0x87, 0x8c, 0x49, 0x3e, 0xa7, 0x5b, 0x9d, 0x3e,
  0xea, 0x12, 0x37, 0xbf, 0x73, 0xb3, 0x7b, 0xbe, 0xc8, 0x55, 0x89, 0x3e,
  0xdc, 0xd8, 0x94, 0x3e, 0x14, 0xbc, 0xf0, 0xbd, 0x42, 0xb0, 0xc9, 0xbe,
  0x89, 0xe4, 0xb0, 0x3e, 0xc1, 0x23, 0x98, 0x3d, 0x1d, 0xce, 0xee, 0xbe,
  0xfb, 0x22, 0x1c, 0xbf, 0xab, 0xf4, 0x91, 0x3e, 0x73, 0x10, 0xb8, 0x3e,
  0xf6, 0x21, 0x84, 0x3f, 0xa8, 0x1c, 0x05, 0x3e, 0xe7, 0xf3, 0x89, 0xbd,
  0x12, 0x0e, 0x61, 0xbf, 0xd0, 0xc5, 0x2c, 0xbe, 0x5e, 0xd3, 0x89, 0x3d,
  0x95, 0x9d, 0x43, 0x3f, 0x59, 0x9b, 0x31, 0x3e, 0x0b, 0xe4, 0xa7, 0xbe,
  0x5a, 0x33, 0x60, 0x3f, 0x7d, 0xee, 0x4d, 0x3e, 0x68, 0x5a, 0x66, 0x3f,
  0x04, 0xba, 0x92, 0x3f, 0xfc, 0x55, 0x6c, 0xbd, 0xcd, 0x9e, 0x81, 0xbe,
  0x98, 0x8b, 0x1d, 0x3d, 0x7f, 0xec, 0x34, 0x3d, 0xca, 0x86, 0x36, 0xbe,
  0xcd, 0x71, 0x4f, 0xbe, 0x81, 0x59, 0x2b, 0x3e, 0xa9, 0x18, 0x72, 0xbe,
  0x28, 0x50, 0x57, 0xbe, 0x54, 0x4a, 0x08, 0xbe, 0xdd, 0x2d, 0x04, 0x3f,
  0x3b, 0xa2, 0xca, 0x3e, 0x2b, 0x14, 0x24, 0xbe, 0x49, 0x48, 0x4b, 0x3f,
  0x9e, 0x2d, 0xd3, 0x3d, 0x9e, 0xaf, 0xd6, 0xbd, 0xa3, 0xc1, 0x06, 0x3f,
  0xd1, 0x1c, 0xd3, 0xbe, 0xb1, 0x0a, 0x82, 0x3e, 0x52, 0x3f, 0xe9, 0xbe,
  0xc5, 0x4e, 0x71, 0x3e, 0x10, 0xa8, 0xe1, 0x3c, 0x8d, 0x7d, 0x64, 0xbe,
  0x3a, 0x32, 0xef, 0xbd, 0x82, 0x24, 0x86, 0xbe, 0x2c, 0xa7, 0xa3, 0x3e,
  0x87, 0xa8, 0x17, 0x3e, 0xe8, 0x60, 0x02, 0x3d, 0xae, 0x7e, 0x12, 0xbe,
  0x30, 0x14, 0xce, 0xbd, 0xc1, 0xda, 0x4a, 0xbe, 0x5f, 0x3b, 0xa3, 0x3d,
  0xf5, 0xf1, 0xb1, 0xbd, 0x9e, 0xfb, 0x01, 0x3e, 0x40, 0x1e, 0xf0, 0x3d,
  0xf7, 0xe9, 0xad, 0x3e, 0x8f, 0xf4, 0x1a, 0x3e, 0xbc, 0x97, 0x7e, 0x3e,
  0x2e, 0x48, 0x85, 0x3e, 0x9d, 0xb3, 0x86, 0xbe, 0xa2, 0x72, 0xa0, 0x3e,
  0x54, 0x99, 0xce, 0xbd, 0x4f, 0x82, 0xc9, 0x3b, 0x95, 0xb6, 0xc3, 0x3c,
  0x62, 0xb6, 0x33, 0xbd, 0x88, 0x66, 0x43, 0xbe, 0xb5, 0x44, 0xba, 0x3e,
  0xd9, 0xee, 0xa6, 0x3d, 0x51, 0xa3, 0x77, 0xbe, 0x05, 0xff, 0x19, 0xbe,
  0x3a, 0xf0, 0xf2, 0x3e, 0xc2, 0xcb, 0x91, 0xbe, 0x3a, 0xa7, 0x7d, 0xbe,
  0x72, 0x5c, 0x0b, 0x3e, 0x8d, 0x70, 0xd9, 0xbd, 0x43, 0x98, 0xc7, 0xbd,
  0x02, 0xfa, 0xd0, 0xbe, 0x86, 0xf8, 0x20, 0xbe, 0xf3, 0x9c, 0x88, 0xbe,
  0x6e, 0x4e, 0x21, 0xbf, 0x86, 0x22, 0x52, 0xbd, 0x64, 0xdd, 0x8d, 0xbe,
  0x44, 0x98, 0x4e, 0xbe, 0x44, 0xf8, 0x27, 0xbe, 0x60, 0xb4, 0x86, 0xbe,
  0xa4, 0x9b, 0xb2, 0xbe, 0x21, 0xbb, 0x3b, 0x3e, 0xea, 0x33, 0x47, 0xbd,
  0x3d, 0xa8, 0xa2, 0xbe, 0xb2, 0x97, 0x81, 0x3e, 0x11, 0xe2, 0xea, 0xbe,
  0x1b, 0xd9, 0x8f, 0xbe, 0x63, 0x2c, 0xd8, 0x3d, 0xdd, 0x40, 0xe5, 0xbe,
  0x85, 0x8c, 0xdd, 0xbe, 0x16, 0x8d, 0xcd, 0xbd, 0xe3, 0xc3, 0xbc, 0xbe,
  0x7f, 0x64, 0x92, 0xbe, 0x29, 0xf1, 0x18, 0x3e, 0xdc, 0x83, 0xa2, 0xbe,
  0xe6, 0x5e, 0x9f, 0xbc, 0x75, 0x8e, 0xf8, 0xbc, 0x62, 0xef, 0xbc, 0xbe,
  0x22, 0xde, 0xf2, 0xbd, 0x3a, 0x48, 0x83, 0xbe, 0xd0, 0x3b, 0x72, 0x3e,
  0x92, 0xbf, 0x05, 0x3e, 0xec, 0xa7, 0x3c, 0xbd, 0x94, 0x86, 0x3b, 0x3e,
  0xe0, 0x27, 0x82, 0xbd, 0x8f, 0x33, 0x80, 0x3e, 0x78, 0xb6, 0x2b, 0xbe,
  0x10, 0xf8, 0x14, 0xbc, 0xe8, 0xf1, 0x15, 0x3d, 0x1c, 0x48, 0x44, 0xbe,
  0xd9, 0x0f, 0x0b, 0xbe, 0x30, 0x9d, 0x7d, 0x3d, 0xe2, 0x5f, 0x21, 0x3e,
  0x14, 0xbc, 0x1a, 0xbe, 0xa8, 0x67, 0x6e, 0x3e, 0x84, 0x0e, 0xab, 0x3d,
  0x50, 0x69, 0x65, 0x3d, 0x20, 0xf4, 0x69, 0x3c, 0x8d, 0x20, 0x47, 0xbe,
  0x22, 0x8e, 0x90, 0xbd, 0x48, 0xad, 0x3b, 0x3d, 0x6a, 0x61, 0x66, 0x3e,
  0x97, 0x33, 0x1c, 0xbe, 0x7c, 0x52, 0x6e, 0x3e, 0x64, 0x75, 0x4c, 0x3e,
  0xb0, 0xf5, 0xf1, 0xbd, 0x18, 0x7c, 0x68, 0xbd, 0x92, 0xe0, 0x3a, 0x3e,
  0xed, 0xa2, 0x76, 0xbe, 0x14, 0x1a, 0x22, 0x3e, 0xd2, 0xbb, 0x55, 0xbe,
  0x97, 0xc4, 0x83, 0x3d, 0xe6, 0xff, 0x91, 0xbe, 0xb6, 0x8f, 0xf7, 0x3e,
  0x38, 0x04, 0x6a, 0x3c, 0xc8, 0x07, 0x58, 0xbe, 0x85, 0x98, 0x39, 0x3e,
  0xdf, 0x7e, 0x07, 0x3c, 0x2c, 0x55, 0xb5, 0xbd, 0xe6, 0x1e, 0x68, 0x3e,
  0xe4, 0xa3, 0x1c, 0x3e, 0x71, 0x11, 0xd0, 0xbd, 0x16, 0x9c, 0x44, 0xbd,
  0x3f, 0x56, 0x71, 0x3d, 0x2d, 0x71, 0xc3, 0x3d, 0x2b, 0x18, 0xf4, 0x3d,
  0x47, 0x86, 0x2d, 0xbc, 0x58, 0x1c, 0x81, 0x3c, 0xbb, 0x48, 0xaf, 0x3d,
  0xf8, 0x6b, 0x18, 0x3e, 0x50, 0x27, 0xa2, 0x3c, 0x59, 0x12, 0xdd, 0x3e,
  0xf7, 0x35, 0x24, 0x3e, 0x90, 0x0f, 0xb9, 0xbd, 0xca, 0x32, 0xb2, 0x3e,
  0xa6, 0x6a, 0x14, 0xbb, 0x48, 0x1a, 0x93, 0xbe, 0x8c, 0x3d, 0x02, 0xbe,
  0x40, 0xad, 0x8d, 0xbd, 0x2a, 0xfb, 0x51, 0x3e, 0x4c, 0x63, 0x4e, 0xbd,
  0x9c, 0x2d, 0xac, 0xbd, 0xd8, 0xe7, 0x88, 0x3d, 0x57, 0x8e, 0x83, 0xbe,
  0x83, 0x2b, 0x6f, 0xbe, 0xee, 0x14, 0x10, 0xbe, 0x36, 0xbe, 0xd1, 0xbd,
  0xd8, 0xde, 0x64, 0x3e, 0x83, 0x64, 0xba, 0x3d, 0x37, 0x40, 0x31, 0x3e,
  0x8a, 0x41, 0x73, 0xbe, 0xf5, 0xac, 0x3d, 0x3e, 0x37, 0xec, 0x83, 0x3e,
  0x53, 0x42, 0x01, 0x3e, 0x29, 0x7a, 0x4c, 0xbe, 0x1d, 0x7e, 0x8b, 0xbe,
  0xd1, 0x7f, 0x17, 0x3d, 0xc3, 0xb7, 0x01, 0xbe, 0xa7, 0x3f, 0x8c, 0xbd,
  0xb8, 0xfe, 0x44, 0x3e, 0x04, 0xdb, 0xb6, 0xbd, 0x9d, 0xed, 0x68, 0xbe,
  0x05, 0x19, 0x0c, 0xbc, 0x2d, 0x0c, 0xbe, 0xbd, 0x74, 0xa1, 0x09, 0xbe,
  0x17, 0x9e, 0xaa, 0xbd, 0x26, 0x04, 0x43, 0xbd, 0x8d, 0xec, 0x8c, 0x3c,
  0xe1, 0x8f, 0x0f, 0xbd, 0x1e, 0x02, 0x4d, 0x3e, 0x45, 0xf3, 0x36, 0x3e,
  0xb9, 0x8f, 0x5c, 0x3c, 0xc1, 0x58, 0xae, 0x3c, 0xea, 0x00, 0x3f, 0xbc,
  0x13, 0xa2, 0x59, 0x3b, 0xce, 0x73, 0x36, 0xbe, 0x5c, 0xd9, 0xae, 0xbd,
  0x32, 0x97, 0x0c, 0x3e, 0x12, 0x3e, 0x19, 0x3e, 0xe9, 0xb6, 0x99, 0xbd,
  0x8f, 0x00, 0x62, 0xbe, 0x04, 0xec, 0x4e, 0xbe, 0x2f, 0x32, 0x7d, 0x3e,
  0x78, 0xc2, 0x9b, 0x3d, 0xf7, 0xa6, 0xda, 0x3d, 0xa5, 0xa7, 0xe6, 0xbd,
  0xf1, 0xa0, 0x23, 0x3e, 0x74, 0x22, 0x2b, 0x3e, 0xad, 0xa3, 0x74, 0xbd,
  0x1a, 0x54, 0x2b, 0xbe, 0x5d, 0xe4, 0x1e, 0x3e, 0x8c, 0x06, 0xa1, 0x3d,
  0xa1, 0xdb, 0x9c, 0x3c, 0x3e, 0x23, 0x99, 0x3b, 0x32, 0xcc, 0x96, 0xbd,
  0x33, 0x14, 0xf6, 0xbd, 0x81, 0xd8, 0x11, 0x3e, 0x32, 0xe1, 0x8f, 0xbd,
  0x4d, 0x26, 0x37, 0x3e, 0x8a, 0x31, 0x7c, 0x3e, 0xfd, 0x90, 0x58, 0x3c,
  0xb5, 0xef, 0xf1, 0x3e, 0x84, 0xfb, 0x69, 0xbe, 0xfe, 0x37, 0x8e, 0x3e,
  0x54, 0xbd, 0x12, 0x3f, 0xc1, 0x55, 0x43, 0x3d, 0x02, 0xde, 0x98, 0x3b,
  0xb6, 0x64, 0x44, 0x3e, 0xc7, 0xaa, 0x1c, 0x3c, 0x23, 0x34, 0x32, 0xbd,
  0xf0, 0x26, 0xb4, 0x3e, 0x01, 0xae, 0x81, 0xbe, 0x4c, 0xf7, 0xb0, 0xbd,
  0xe1, 0x6d, 0x30, 0x3d, 0xe2, 0x92, 0x56, 0xbe, 0xb1, 0x46, 0xc3, 0x3e,
  0x34, 0x95, 0x35, 0x3e, 0xc7, 0x7d, 0x55, 0xbe, 0x27, 0x4c, 0xef, 0x3b,
  0xc3, 0xde, 0xd0, 0x3e, 0x4d, 0x55, 0x5e, 0xbc, 0x57, 0xca, 0xfd, 0x3e,
  0x83, 0xf4, 0x89, 0x3e, 0xa7, 0x66, 0x92, 0x3c, 0x3f, 0xe3, 0x82, 0x3e,
  0x38, 0xd9, 0x84, 0x3b, 0xfb, 0x8a, 0x2f, 0x3e, 0xc5, 0xc6, 0x40, 0x3e,
  0xdd, 0x46, 0xd2, 0x3e, 0xdb, 0x51, 0x79, 0xbd, 0xdd, 0xb0, 0x82, 0xbd,
  0x59, 0x61, 0x8a, 0xbd, 0xda, 0x58, 0x4f, 0x3e, 0x3e, 0x5a, 0x3e, 0x3e,
  0x7e, 0x4a, 0x56, 0xbe, 0x77, 0xb4, 0x61, 0xbe, 0x65, 0x64, 0xd1, 0x3d,
  0x17, 0x3b, 0x4d, 0xbe, 0x8e, 0xb2, 0x8f, 0x3c, 0x70, 0x30, 0xa2, 0xbd,
  0xf9, 0x0b, 0x95, 0xbe, 0x1d, 0xd0, 0x9e, 0xbd, 0x09, 0x6a, 0x92, 0x3b,
  0x5c, 0xe6, 0xc5, 0x3d, 0x6a, 0x88, 0x56, 0xbe, 0x90, 0xee, 0x28, 0x3e,
  0x42, 0x8a, 0x04, 0xbd, 0xd7, 0x50, 0x2d, 0x3e, 0x14, 0x1f, 0xcd, 0xbb,
  0x66, 0x67, 0xe6, 0x3d, 0xe1, 0x7f, 0x10, 0x3d, 0x59, 0xe0, 0xc0, 0xbe,
  0x79, 0x5b, 0xe2, 0x3c, 0x0e, 0x3d, 0xb7, 0xbe, 0x74, 0x2f, 0xd1, 0x3d,
  0x1d, 0x80, 0x4c, 0xbe, 0x1a, 0x3a, 0x9a, 0x3e, 0xe9, 0xe2, 0xf2, 0xbd,
  0xa6, 0x59, 0x99, 0xbe, 0x1b, 0x05, 0x3a, 0x3d, 0xa0, 0x9a, 0x05, 0x3f,
  0xf8, 0xfb, 0x61, 0x3e, 0x9c, 0xf5, 0x80, 0xbe, 0xb5, 0x15, 0xe8, 0xbc,
  0x64, 0x39, 0x30, 0x3e, 0x6a, 0x73, 0xf7, 0xbd, 0x8e, 0xce, 0x32, 0xbb,
  0x2e, 0x1d, 0x06, 0xbe, 0x17, 0x7a, 0xa8, 0xbe, 0xf6, 0x53, 0x62, 0xbe,
  0xd2, 0x8b, 0x97, 0x3d, 0xc3, 0xfc, 0x11, 0xbe, 0xfa, 0xc4, 0x67, 0xbd,
  0x09, 0xb6, 0x42, 0x3e, 0xed, 0xa0, 0x60, 0x3c, 0x81, 0x81, 0xf3, 0x3d,
  0xde, 0x41, 0x8f, 0x3e, 0x1b, 0x72, 0x3b, 0x3e, 0xb1, 0x34, 0x59, 0x3e,
  0xbd, 0xaf, 0xab, 0x3d, 0x0f, 0xd3, 0xee, 0x3d, 0x99, 0xad, 0x8f, 0x3e,
  0xc6, 0x86, 0x15, 0x3e, 0x76, 0xb6, 0x82, 0xbe, 0xca, 0x80, 0x00, 0xbe,
  0x49, 0x13, 0xd3, 0xbd, 0x89, 0xe9, 0x01, 0x3e, 0x55, 0x23, 0x35, 0x3e,
  0x25, 0x05, 0x54, 0xbe, 0xb4, 0x86, 0xbd, 0xbe, 0x62, 0x9a, 0xf2, 0xbd,
  0x37, 0x5d, 0x0d, 0xbe, 0x44, 0x5d, 0xdc, 0x3e, 0xbe, 0xef, 0x16, 0x3d,
  0x0b, 0xd7, 0x57, 0x3e, 0x11, 0x40, 0xa2, 0xbe, 0xb9, 0x63, 0x47, 0xbe,
  0x78, 0x9d, 0x43, 0x3d, 0x54, 0x15, 0xb7, 0xbe, 0xf7, 0xde, 0xb2, 0x3c,
  0xb7, 0xb7, 0x37, 0x3d, 0x8e, 0xa1, 0x06, 0x3e, 0xb7, 0x48, 0xbe, 0x3e,
  0x5f, 0x60, 0x4c, 0xbd, 0xbb, 0x7c, 0xb7, 0x3d, 0x32, 0x9a, 0x70, 0x3e,
  0x7b, 0x5a, 0x15, 0x3e, 0x6a, 0x03, 0x98, 0xbe, 0x28, 0x1e, 0x02, 0xbc,
  0xcc, 0xda, 0x0c, 0x3d, 0xeb, 0x53, 0x59, 0x3e, 0xa5, 0x39, 0x29, 0xbd,
  0xa6, 0x27, 0xe4, 0x3d, 0x68, 0xf8, 0x30, 0xbe, 0x17, 0x52, 0xac, 0x3d,
  0x4d, 0xb4, 0xd9, 0xbd, 0xb5, 0xb2, 0xa7, 0xbb, 0x21, 0x7d, 0xce, 0xbc,
  0x74, 0x2c, 0x10, 0xbe, 0x9f, 0x6f, 0xa0, 0x3e, 0x0f, 0xf7, 0xf9, 0xbe,
  0xab, 0x54, 0x29, 0x3d, 0xa9, 0xab, 0x32, 0x3e, 0xea, 0x88, 0x85, 0x3e,
  0x21, 0xe8, 0x09, 0x3f, 0xe1, 0x2b, 0x83, 0xbd, 0xcc, 0x4d, 0xad, 0xbe,
  0xd3, 0xb7, 0x75, 0xbf, 0x7d, 0xe3, 0x13, 0x3e, 0xf2, 0x79, 0xa8, 0x3e,
  0xce, 0x2e, 0x33, 0x3f, 0xb8, 0x86, 0x44, 0x3d, 0x4f, 0xf5, 0x23, 0x3e,
  0x29, 0x74, 0xc1, 0xbe, 0x95, 0x06, 0x7f, 0xbe, 0xb8, 0x4f, 0x42, 0xbf,
  0x4a, 0x15, 0x18, 0x3e, 0x20, 0xf6, 0x98, 0x3d, 0xaa, 0xff, 0x95, 0xbe,
  0xa7, 0x63, 0x06, 0x3f, 0x89, 0x40, 0x95, 0xbe, 0x8b, 0xf3, 0xd7, 0x3e,
  0xd1, 0x3c, 0xfc, 0xbe, 0x3c, 0xd3, 0x24, 0x3e, 0xc1, 0x5c, 0x1b, 0x3f,
  0x7f, 0xf5, 0x8d, 0x3e, 0x38, 0xf6, 0x84, 0xbe, 0xc9, 0x29, 0x9c, 0xbe,
  0xe8, 0x94, 0x0d, 0xbf, 0x18, 0x98, 0x9d, 0x3e, 0xdc, 0xca, 0xbe, 0x3b,
  0x0b, 0x86, 0x14, 0xbf, 0x4c, 0x11, 0x9d, 0x3e, 0xb0, 0x86, 0x96, 0xbe,
  0x40, 0xbb, 0xd5, 0xbe, 0x90, 0x6a, 0x7c, 0x3d, 0x76, 0xea, 0xf5, 0xbd,
  0x69, 0xcd, 0x01, 0xbf, 0x84, 0x86, 0x4f, 0xbd, 0xfa, 0x54, 0xbe, 0xbd,
  0x48, 0x4c, 0x99, 0xbc, 0xb0, 0x64, 0xf3, 0xbd, 0x96, 0xfa, 0x29, 0xbd,
  0x0f, 0x2a, 0x89, 0xbd, 0x5b, 0xfc, 0x3f, 0x3e, 0xac, 0x52, 0xec, 0xbd,
  0x9e, 0x5c, 0xb0, 0xbc, 0x9d, 0xb5, 0x40, 0xbe, 0xaf, 0x5f, 0xf2, 0xbe,
  0x33, 0x9f, 0x80, 0xbe, 0xd1, 0xd4, 0x30, 0xbe, 0xf6, 0x81, 0xae, 0xbe,
  0xc0, 0x3f, 0xe7, 0xbe, 0x28, 0x1b, 0x00, 0xbe, 0x50, 0xbc, 0xc5, 0xbd,
  0x7f, 0xcf, 0xf8, 0xbe, 0xef, 0x6a, 0x0a, 0x3c, 0xb9, 0x5a, 0xb6, 0xbd,
  0xfb, 0x4d, 0xee, 0xbe, 0x4d, 0x47, 0x80, 0x3e, 0xcb, 0xde, 0x51, 0x3d,
  0x4c, 0x85, 0xa6, 0xbd, 0x21, 0x3a, 0x2b, 0xbe, 0xa8, 0x86, 0x99, 0x3e,
  0xb9, 0xab, 0x93, 0x3e, 0x66, 0x06, 0x6d, 0x3e, 0xf8, 0x0c, 0x60, 0x3b,
  0xac, 0x3f, 0xf9, 0xba, 0x69, 0x1c, 0x9d, 0xbd, 0x01, 0x87, 0xf8, 0x3d,
  0x8a, 0xfb, 0x85, 0xbd, 0x43, 0xf2, 0xe0, 0xbc, 0x41, 0x2c, 0x90, 0xbd,
  0x51, 0x33, 0xab, 0xbd, 0xde, 0x93, 0xf5, 0x3d, 0x5f, 0x4a, 0xbe, 0x3e,
  0xc2, 0x80, 0x50, 0x3e, 0xc4, 0xb6, 0x37, 0xbe, 0x04, 0x10, 0xd6, 0x3e,
  0x77, 0x64, 0x86, 0x3e, 0xdc, 0xa8, 0x5e, 0xbe, 0xfa, 0x02, 0x75, 0x3e,
  0xdb, 0x2d, 0xca, 0x3e, 0xd0, 0xe0, 0xcd, 0x3d, 0x22, 0x8c, 0x12, 0xbe,
  0x19, 0x7f, 0x2c, 0xbe, 0x75, 0x05, 0x6e, 0xbe, 0xc1, 0x81, 0xc6, 0x3d,
  0xde, 0x7a, 0x20, 0xbe, 0x59, 0x5a, 0x40, 0x3d, 0xa4, 0xab, 0x6c, 0xbe,
  0x0d, 0xc0, 0x2c, 0xbf, 0x92, 0x35, 0x25, 0x3d, 0x44, 0x36, 0xf1, 0x3d,
  0x95, 0x5b, 0x1a, 0x3f, 0x99, 0x69, 0x2c, 0x3e, 0x03, 0x64, 0x81, 0xbe,
  0xc7, 0x97, 0x42, 0x3e, 0x89, 0x4e, 0xb2, 0x3e, 0x64, 0x98, 0xaf, 0x3d,
  0x8f, 0xdb, 0x63, 0xbd, 0x66, 0x6c, 0x11, 0x3e, 0x6e, 0x3b, 0xfe, 0xbc,
  0x0f, 0x1b, 0xa2, 0x3e, 0xb8, 0x4f, 0x9e, 0xbd, 0x7c, 0x9f, 0x6a, 0x3e,
  0x04, 0xa9, 0xc2, 0x3e, 0x36, 0x8b, 0xa0, 0xbe, 0x16, 0x33, 0x8f, 0x3e,
  0xeb, 0x25, 0x87, 0xbd, 0x97, 0xb0, 0x88, 0x3e, 0x3b, 0x12, 0x19, 0x3e,
  0xe3, 0xed, 0x98, 0x3d, 0x11, 0xfa, 0x5d, 0x3c, 0xa6, 0x28, 0x36, 0xbe,
  0x3a, 0x55, 0xdf, 0xbd, 0x58, 0x05, 0xf5, 0xbd, 0x52, 0x61, 0x14, 0x3e,
  0xcc, 0x1e, 0xd4, 0xbe, 0xd6, 0xe1, 0xc4, 0xbe, 0x30, 0x4d, 0x6a, 0xbe,
  0x50, 0xad, 0x5e, 0x3e, 0x69, 0xa3, 0x62, 0x3e, 0x33, 0x6d, 0xd2, 0x3d,
  0x84, 0xdc, 0x38, 0xbe, 0xc8, 0x1a, 0x18, 0x3e, 0xf9, 0x0b, 0x5d, 0x3e,
  0x00, 0x86, 0x56, 0x3d, 0xba, 0xab, 0x25, 0x3e, 0xea, 0xe2, 0x36, 0xbd,
  0x86, 0xc3, 0xb7, 0xbc, 0x49, 0x63, 0x53, 0xbe, 0xed, 0x50, 0x34, 0x3e,
  0x97, 0x0d, 0xb5, 0xbb, 0x45, 0x12, 0x15, 0x3e, 0x62, 0xb2, 0xe2, 0x3c,
  0x32, 0x69, 0x0c, 0xbe, 0x39, 0x26, 0x08, 0x3c, 0x22, 0x65, 0x39, 0x3e,
  0x9f, 0x60, 0x1e, 0xbe, 0x37, 0x99, 0xc2, 0x3d, 0x27, 0x0c, 0x3f, 0xbe,
  0xb4, 0xa8, 0x1b, 0x3e, 0x74, 0xde, 0x9e, 0xbc, 0xa9, 0xf9, 0x23, 0x3e,
  0xf4, 0xad, 0x2a, 0xbd, 0xfa, 0xa6, 0x6b, 0x3e, 0xfc, 0x05, 0xa8, 0xbd,
  0x09, 0x6c, 0x77, 0xbd, 0x46, 0xd4, 0x50, 0xbe, 0xeb, 0x85, 0x9d, 0x3d,
  0xed, 0x69, 0xf4, 0x3d, 0x8b, 0xda, 0x7c, 0xbd, 0xd0, 0xac, 0x8f, 0x3e,
  0x9d, 0xf5, 0x31, 0x3e, 0x65, 0x0c, 0x1a, 0xbe, 0x6f, 0x9d, 0xa6, 0xbd,
  0xc2, 0x13, 0x30, 0xbd, 0x75, 0x6a, 0x51, 0x3e, 0x43, 0xa7, 0x95, 0xbd,
  0xc3, 0xaf, 0xda, 0x3c, 0x30, 0x25, 0x49, 0x3d, 0xc8, 0x36, 0x8d, 0x3e,
  0x13, 0xf6, 0x6b, 0xbd, 0xd9, 0x7a, 0xd6, 0xbc, 0xcc, 0x7c, 0x60, 0x3e,
  0xde, 0xa9, 0x77, 0x3e, 0xb2, 0x15, 0x89, 0x3d, 0x0c, 0x32, 0x5f, 0x3d,
  0xc9, 0xe6, 0xf2, 0xbd, 0x26, 0x0e, 0x8c, 0x3e, 0x25, 0xd9, 0x1c, 0xbe,
  0xbd, 0xf8, 0x64, 0x3e, 0x75, 0x9c, 0x28, 0xbe, 0x69, 0x30, 0x94, 0x3d,
  0x7f, 0x4a, 0x7c, 0x3e, 0x50, 0x36, 0x83, 0x3e, 0x73, 0x6e, 0x8f, 0x3e,
  0x7b, 0x1d, 0x6c, 0x3e, 0xbc, 0xa4, 0x65, 0x3e, 0x88, 0x65, 0x50, 0xbe,
  0x5f, 0x14, 0x03, 0xbf, 0x60, 0xb5, 0x6c, 0x3e, 0x19, 0x5a, 0xed, 0xbd,
  0x79, 0x28, 0x93, 0xbe, 0xda, 0xdd, 0x8e, 0xbd, 0x67, 0xe3, 0x41, 0xbe,
  0x61, 0x68, 0xd1, 0xbd, 0xee, 0x71, 0x8b, 0x3e, 0x60, 0xc2, 0x1e, 0xbe,
  0xf1, 0x89, 0x7c, 0xbe, 0x31, 0x3d, 0x56, 0xbe, 0x48, 0x58, 0xb5, 0xbc,
  0x98, 0x31, 0xcc, 0xbe, 0x62, 0x62, 0x86, 0x3c, 0x05, 0x7a, 0x2f, 0xbe,
  0x22, 0x68, 0x72, 0xbe, 0x20, 0x19, 0x64, 0xbe, 0xfa, 0xef, 0x95, 0xbe,
  0xa6, 0xbd, 0x84, 0xbe, 0x41, 0x38, 0xc7, 0xbd, 0xe5, 0x3f, 0xde, 0xbe,
  0x98, 0xe8, 0xa1, 0xbd, 0xd3, 0xaa, 0xe5, 0x3d, 0xf6, 0xea, 0x8c, 0xbb,
  0xf4, 0x82, 0x93, 0xbe, 0x47, 0xef, 0x83, 0x3e, 0xa2, 0xfa, 0x4a, 0xbe,
  0x78, 0xe4, 0x3a, 0xbe, 0xff, 0x40, 0x26, 0xbe, 0xd8, 0xbd, 0xd0, 0xbe,
  0x89, 0x85, 0x9b, 0xbe, 0x8d, 0xec, 0x85, 0xbd, 0x15, 0xda, 0xae, 0xbe,
  0x52, 0x84, 0xb5, 0xbe, 0x0e, 0x7c, 0x28, 0x3d, 0x36, 0xc6, 0x3f, 0xbe,
  0x43, 0x06, 0x15, 0x3e, 0x77, 0x11, 0x3a, 0xbe, 0xd1, 0x59, 0xb9, 0xbc,
  0x27, 0x2c, 0x39, 0x3d, 0x81, 0x86, 0x63, 0xbe, 0x83, 0xcc, 0x9c, 0xbd,
  0x88, 0x38, 0xee, 0xbd, 0x4f, 0x06, 0x63, 0x3d, 0x4b, 0xbd, 0x65, 0xbe,
  0xa1, 0x3e, 0x95, 0xbd, 0x4f, 0xdb, 0x60, 0x3e, 0xb9, 0x67, 0xff, 0xbd,
  0x15, 0x3a, 0xc5, 0xbe, 0xc4, 0x3d, 0x6c, 0xbe, 0xc9, 0xe8, 0xfb, 0xbd,
  0x5c, 0xa4, 0x02, 0xbe, 0x00, 0x89, 0xe7, 0xbd, 0x35, 0x6c, 0x45, 0xbd,
  0xc2, 0x10, 0x17, 0xbe, 0x76, 0x88, 0x2e, 0xbd, 0xe5, 0x8c, 0x88, 0xbe,
  0xc8, 0x84, 0x25, 0xbe, 0x38, 0x3a, 0x4a, 0x3e, 0xa3, 0xfd, 0x70, 0x3c,
  0x28, 0xd9, 0x24, 0xbe, 0xae, 0x57, 0xb2, 0x3d, 0x00, 0xf7, 0x2f, 0x3e,
  0x4d, 0xd4, 0x4e, 0xbe, 0xfd, 0xb2, 0x02, 0xbd, 0x8e, 0x32, 0x28, 0xbe,
  0x20, 0xbd, 0xc3, 0xbe, 0x51, 0x28, 0x2a, 0xbd, 0x82, 0xe6, 0x37, 0x3e,
  0xf4, 0x20, 0x55, 0xbe, 0xd1, 0x8d, 0x3b, 0x3e, 0xe6, 0xc6, 0x23, 0x3c,
  0x90, 0xc5, 0x63, 0xbe, 0x33, 0x0d, 0x00, 0xbe, 0xd7, 0x8b, 0xd9, 0xbc,
  0x18, 0xb2, 0x4c, 0xbe, 0x87, 0x38, 0x2f, 0xbe, 0x0e, 0xb8, 0xbd, 0x3d,
  0x87, 0x81, 0x92, 0x3d, 0xab, 0x0b, 0x47, 0xbe, 0x83, 0x33, 0xa3, 0xbe,
  0x05, 0xa3, 0xa2, 0xbd, 0xa7, 0xe8, 0x83, 0x3d, 0x75, 0xa5, 0x3c, 0xbe,
  0xf0, 0x6a, 0xda, 0xbe, 0xc2, 0x7b, 0x48, 0xbe, 0xe8, 0xa6, 0x26, 0x3e,
  0x55, 0xee, 0xc1, 0xbc, 0x8d, 0x60, 0xaa, 0x3e, 0x49, 0x35, 0x61, 0x3c,
  0xe6, 0x4e, 0xc0, 0x3e, 0x80, 0x30, 0xd8, 0xbd, 0x60, 0x9f, 0xea, 0x3e,
  0xec, 0x8e, 0xf2, 0x3e, 0x4c, 0xa4, 0x97, 0xbe, 0x82, 0x32, 0x41, 0xbd,
  0xd5, 0xae, 0x93, 0xbe, 0x1f, 0xc9, 0xd9, 0x3d, 0x1b, 0xba, 0x16, 0xbe,
  0x8e, 0x7a, 0x33, 0xbd, 0x99, 0x30, 0x0e, 0x3d, 0xb5, 0x1a, 0x06, 0xbe,
  0x8d, 0x46, 0x27, 0x3e, 0x20, 0x82, 0xfd, 0xbd, 0x52, 0xf4, 0xe7, 0x3e,
  0xb5, 0xee, 0x48, 0xbd, 0x1f, 0x0c, 0x41, 0xbe, 0x66, 0x1a, 0xc7, 0x3d,
  0x7d, 0x32, 0xeb, 0x3d, 0xf5, 0x2a, 0x20, 0xbe, 0x22, 0x23, 0x31, 0x3d,
  0xe0, 0xf7, 0x86, 0xbe, 0x73, 0x45, 0x37, 0xbe, 0x17, 0xcd, 0x68, 0x3e,
  0x90, 0xa3, 0xf6, 0xbd, 0xfe, 0x33, 0xb4, 0xbd, 0x30, 0x87, 0xfa, 0xbd,
  0x28, 0x1b, 0x50, 0x3d, 0x47, 0xac, 0x2f, 0x3d, 0xfc, 0xb9, 0x19, 0x3f,
  0x7f, 0x18, 0xaa, 0x3e, 0x38, 0x82, 0x90, 0x3e, 0x0d, 0x5b, 0x73, 0xbe,
  0x51, 0x89, 0xbc, 0xbe, 0x21, 0x5d, 0xe1, 0xbe, 0xe3, 0x7a, 0x13, 0xbf,
  0x68, 0xc1, 0x86, 0xbf, 0xe6, 0x82, 0xa4, 0x3e, 0x43, 0x0c, 0x10, 0x3e,
  0xc1, 0x54, 0x95, 0x3f, 0xb0, 0x93, 0x72, 0xbe, 0x4e, 0xc8, 0xf0, 0xbc,
  0xe8, 0x61, 0x11, 0xbf, 0x3d, 0x9b, 0x33, 0x3e, 0xb5, 0xdc, 0x36, 0x3d,
  0xf2, 0xf4, 0x3c, 0x3f, 0x51, 0xc2, 0x77, 0x3e, 0xea, 0xfb, 0xd5, 0xbd,
  0xbe, 0x33, 0x70, 0xbd, 0x8e, 0xa3, 0xb4, 0xbe, 0xf7, 0xb3, 0xb8, 0x3e,
  0x39, 0x9e, 0xa0, 0xbe, 0xb4, 0xf4, 0x3b, 0xbe, 0x2f, 0x4c, 0x9c, 0x3b,
  0x97, 0x8a, 0xcc, 0x3e, 0x53, 0x38, 0x36, 0x3d, 0x55, 0xd1, 0x9f, 0xbe,
  0xb3, 0xa5, 0x33, 0xbf, 0x1a, 0xd6, 0x0c, 0x3e, 0x49, 0x87, 0x6d, 0xbc,
  0x62, 0x89, 0x2e, 0x3e, 0x66, 0xf4, 0xa1, 0x3d, 0x18, 0x0e, 0xb8, 0x3d,
  0x6d, 0x87, 0x40, 0x3e, 0xce, 0x54, 0xcc, 0xbc, 0x63, 0x81, 0xd3, 0x3d,
  0xcf, 0x61, 0x96, 0x3e, 0x90, 0x42, 0x2b, 0x3e, 0xaf, 0x83, 0x36, 0x3d,
  0x4b, 0x79, 0xdf, 0x3c, 0x81, 0xa6, 0x41, 0xbe, 0x66, 0x42, 0x12, 0x3e,
  0xe5, 0xbc, 0xc3, 0x3e, 0xa1, 0xee, 0x5c, 0xba, 0x14, 0x0b, 0x95, 0x3d,
  0xea, 0xd7, 0xf5, 0x3d, 0x59, 0xbb, 0x84, 0xbe, 0x0e, 0x68, 0x96, 0x3e,
  0x91, 0x2e, 0xd4, 0x3d, 0xaf, 0xe1, 0x98, 0xbd, 0xe1, 0xb5, 0x08, 0x3f,
  0x4c, 0x03, 0x07, 0x3e, 0x54, 0x7d, 0xa5, 0x3d, 0xe2, 0x8f, 0x24, 0x3d,
  0xdc, 0xa2, 0x90, 0xbd, 0x33, 0x95, 0xcf, 0xbd, 0x87, 0x5f, 0xa2, 0x3e,
  0x29, 0x64, 0x93, 0x3e, 0x90, 0xe1, 0x76, 0xbd, 0xc5, 0x8a, 0xbe, 0xbe,
  0x1d, 0x3c, 0xb1, 0x3f, 0xd5, 0x3f, 0x80, 0xbd, 0x7d, 0xa3, 0x90, 0xbe,
  0x89, 0x15, 0xa7, 0x3f, 0x7e, 0xb1, 0x8e, 0xbd, 0x55, 0x5b, 0x89, 0xbf,
  0xe1, 0xe3, 0x53, 0x3f, 0x93, 0xad, 0x5d, 0xbd, 0x61, 0xd8, 0xdd, 0xbe,
  0x75, 0xbf, 0x61, 0x3f, 0xe5, 0x82, 0xfd, 0xbd, 0x6b, 0x9d, 0x8f, 0xbd,
  0x0a, 0x40, 0x58, 0x3f, 0x96, 0x06, 0x2c, 0x3d, 0x8a, 0x65, 0x40, 0xbf,
  0xb5, 0xcc, 0xea, 0x3e, 0x1e, 0xd7, 0x87, 0xbc, 0x71, 0x2e, 0x06, 0xbf,
  0xdf, 0xcb, 0xef, 0x3d, 0xae, 0x12, 0x81, 0xbe, 0x09, 0x75, 0x07, 0xbf,
  0x8c, 0x24, 0x04, 0x3f, 0x86, 0xeb, 0xc1, 0x3d, 0xdd, 0x30, 0x01, 0xbf,
  0x2e, 0xbd, 0x3d, 0x3f, 0x73, 0x07, 0xaa, 0x3e, 0xa1, 0x71, 0xb6, 0xbe,
  0xe2, 0x65, 0xd7, 0x3e, 0x24, 0x59, 0xe5, 0x3d, 0xa7, 0xa6, 0x99, 0x3e,
  0xcc, 0x05, 0x17, 0xbe, 0x90, 0x35, 0x02, 0xbe, 0xd0, 0x87, 0x6f, 0xbd,
  0x46, 0xc3, 0xe3, 0xbd, 0x5b, 0x8a, 0x37, 0x3e, 0x3b, 0x39, 0xfb, 0x3d,
  0x1f, 0x5f, 0x16, 0xbe, 0xcc, 0x9f, 0x62, 0x3d, 0x69, 0x41, 0x89, 0xbe,
  0x94, 0xf7, 0x48, 0x3d, 0xa9, 0xed, 0x01, 0xbe, 0x27, 0x5b, 0x41, 0xbe,
  0xe0, 0x6c, 0x13, 0x3e, 0x49, 0x38, 0x0c, 0xbe, 0xa0, 0x31, 0x51, 0xbe,
  0x27, 0x9a, 0x9c, 0x3d, 0x40, 0xd4, 0x93, 0xbd, 0xee, 0x72, 0xc9, 0xbe,
  0xde, 0x0d, 0x8b, 0x3d, 0xd4, 0xbd, 0x9c, 0x3d, 0x9f, 0xef, 0x97, 0x3d,
  0xde, 0x69, 0xb0, 0xbe, 0xeb, 0x5d, 0x35, 0x3d, 0x16, 0x5b, 0x37, 0xbe,
  0x06, 0x9f, 0xec, 0x3e, 0xb8, 0x8e, 0x1c, 0xbe, 0x18, 0x8c, 0x2c, 0x3d,
  0xe2, 0x72, 0x2e, 0xbc, 0x82, 0x12, 0x75, 0xbe, 0xa3, 0x93, 0xec, 0xbe,
  0x89, 0x1e, 0x9a, 0x3e, 0x17, 0xff, 0xaa, 0xbe, 0x76, 0xe6, 0x7a, 0xbe,
  0xb0, 0xf6, 0x34, 0x3f, 0x71, 0xd3, 0x11, 0xbe, 0xb6, 0xf1, 0xd3, 0xbe,
  0xfa, 0xc7, 0x26, 0x3e, 0x05, 0xc7, 0x09, 0x3e, 0xb9, 0xf4, 0x9a, 0xbe,
  0xf4, 0x9e, 0x95, 0xbd, 0xd4, 0x2f, 0x87, 0xbe, 0x7c, 0xb8, 0xef, 0x3d,
  0xc7, 0xef, 0x94, 0x3e, 0xa4, 0x4f, 0xc0, 0x3c, 0xf6, 0x1c, 0xe7, 0x3d,
  0x0e, 0x3d, 0xc7, 0x3d, 0x0f, 0x7d, 0xfb, 0xbd, 0xad, 0xd7, 0x62, 0x3e,
  0xe1, 0x7a, 0xb9, 0x3e, 0xd4, 0x74, 0x93, 0xbe, 0x1b, 0x85, 0x5d, 0x3d,
  0x24, 0x0c, 0x90, 0x3e, 0xad, 0xe5, 0x8b, 0x3e, 0xc0, 0x7e, 0xf9, 0xbd,
  0x44, 0x9b, 0xa0, 0x3d, 0xd5, 0x2b, 0x83, 0x3d, 0xe4, 0x2e, 0xff, 0xbd,
  0xeb, 0x59, 0x3d, 0x3e, 0x3d, 0x3b, 0xcc, 0xbe, 0x41, 0xb4, 0xc3, 0xbc,
  0x21, 0x7b, 0x4e, 0xbd, 0x2b, 0xc8, 0xf4, 0xbd, 0x09, 0x81, 0x4e, 0xbd,
  0xaf, 0x3e, 0x18, 0x3e, 0x85, 0x99, 0x47, 0x3d, 0x29, 0x68, 0xef, 0xbb,
  0x0e, 0x38, 0x2b, 0x3c, 0x0a, 0xd5, 0x1c, 0xbe, 0x30, 0x0e, 0x3e, 0xbe,
  0x97, 0x28, 0xde, 0xbd, 0x38, 0x21, 0x1a, 0x3e, 0x52, 0x5f, 0x63, 0x3e,
  0x41, 0xab, 0x8b, 0xbd, 0x9b, 0x43, 0x7f, 0xbd, 0x9a, 0x30, 0xa6, 0x3e,
  0x11, 0xe6, 0x79, 0x3e, 0xf3, 0xba, 0x2b, 0x3e, 0xea, 0xd8, 0x88, 0x3e,
  0xa2, 0x28, 0x26, 0x3e, 0x97, 0x81, 0x82, 0xbe, 0x38, 0x41, 0x8c, 0x3d,
  0xbe, 0xc7, 0x70, 0xbe, 0x53, 0x34, 0x00, 0xbe, 0x56, 0x83, 0xb5, 0xbd,
  0x18, 0x1d, 0xe7, 0xbe, 0x5a, 0x62, 0x87, 0xbe, 0xc2, 0x70, 0x70, 0x3a,
  0x68, 0xbc, 0x2e, 0x3d, 0x9a, 0x42, 0x0b, 0xbe, 0xab, 0x81, 0x83, 0xbd,
  0xea, 0x7b, 0xa3, 0x3e, 0xc8, 0xa0, 0xad, 0xbe, 0x4e, 0x6f, 0xbd, 0x3d,
  0xd7, 0x93, 0xfc, 0xbd, 0x34, 0x95, 0xfb, 0x3d, 0xb2, 0x15, 0xc0, 0x3d,
  0xdd, 0x29, 0xf5, 0x3b, 0x32, 0x9f, 0x66, 0x3e, 0x3d, 0x6d, 0xa8, 0xbd,
  0xa4, 0xf3, 0x99, 0xbe, 0x68, 0x94, 0x76, 0xbe, 0x0b, 0x7d, 0x07, 0x3e,
  0xe9, 0x22, 0x1c, 0xbe, 0x23, 0xef, 0x4b, 0x3e, 0xbd, 0xc2, 0x33, 0x3e,
  0x42, 0xa4, 0x3a, 0xbe, 0x04, 0x46, 0x3c, 0x3e, 0xee, 0xaf, 0x87, 0xbb,
  0xe9, 0x58, 0x62, 0x3e, 0x00, 0xe1, 0x06, 0xbe, 0x47, 0xa8, 0xfd, 0xbc,
  0xaf, 0x48, 0xe3, 0xbd, 0x3b, 0x54, 0x84, 0x3d, 0xee, 0xbe, 0x78, 0x3d,
  0x7b, 0xe0, 0x5f, 0xbe, 0x50, 0x80, 0xc7, 0x3e, 0xde, 0x87, 0x22, 0xbe,
  0xb5, 0x27, 0xa6, 0xbd, 0x38, 0xea, 0xb7, 0xbe, 0x5a, 0x90, 0x7d, 0xbd,
  0xe4, 0x9f, 0x80, 0x3e, 0x5e, 0xd4, 0xea, 0xbe, 0xbc, 0x16, 0x22, 0x3e,
  0xa8, 0x70, 0x13, 0xbe, 0xed, 0x83, 0x2e, 0x3e, 0x2f, 0x88, 0x38, 0x3e,
  0x62, 0x7b, 0xce, 0xbd, 0xc4, 0xf0, 0x86, 0x3d, 0xa9, 0x55, 0x39, 0x3e,
  0x73, 0xcc, 0x20, 0x3e, 0x9d, 0x77, 0xe8, 0xbd, 0x84, 0xd4, 0x1b, 0xbe,
  0x7b, 0xfb, 0x84, 0xbe, 0x4b, 0xa0, 0xa4, 0x3e, 0xc9, 0x3f, 0xa0, 0xbc,
  0x05, 0x22, 0xbf, 0xbe, 0x7c, 0x2b, 0xee, 0x3e, 0x47, 0x10, 0x9f, 0xbc,
  0x2d, 0x7b, 0x32, 0x3e, 0x2e, 0xf3, 0x84, 0xbe, 0x1b, 0x4f, 0x4e, 0x3e,
  0x63, 0xa4, 0x58, 0xbc, 0xc4, 0x5c, 0x7f, 0x3e, 0x8e, 0x76, 0x4e, 0x3d,
  0xc3, 0x0a, 0xdd, 0xbe, 0x1c, 0xc3, 0x4a, 0x3e, 0x63, 0xda, 0x3c, 0x3e,
  0x18, 0xfa, 0x40, 0x3e, 0xef, 0xe3, 0x00, 0xbf, 0x9d, 0xad, 0x96, 0xbc,
  0xbc, 0x26, 0x12, 0xbf, 0x8f, 0x1a, 0x05, 0x3f, 0xf6, 0x06, 0x1d, 0xbd,
  0xdf, 0x6e, 0x88, 0xbe, 0x8b, 0x24, 0xbe, 0x3d, 0x23, 0xb1, 0x33, 0x3f,
  0xdb, 0x8a, 0xb3, 0x3e, 0x8a, 0xf4, 0xde, 0x3d, 0x1b, 0x8e, 0x89, 0x3d,
  0xee, 0x40, 0x72, 0xbe, 0x22, 0x3e, 0xfc, 0x3c, 0xea, 0x41, 0x8e, 0x3d,
  0x8c, 0xb6, 0x6d, 0xbe, 0xf9, 0xac, 0x9a, 0x3e, 0x76, 0x5c, 0x91, 0x3c,
  0xaa, 0x9f, 0x21, 0x3c, 0x69, 0xfb, 0x86, 0xbe, 0xbe, 0x54, 0xcc, 0x3d,
  0xec, 0xc0, 0xa5, 0x3e, 0xc3, 0x60, 0xb7, 0xbe, 0xb7, 0xe1, 0x01, 0xbf,
  0x93, 0xcb, 0x3e, 0xbe, 0x89, 0x7f, 0x81, 0x3d, 0x22, 0x3b, 0x68, 0xbe,
  0x2d, 0x63, 0xed, 0xbc, 0xb7, 0xb7, 0xc2, 0xbe, 0xa1, 0x62, 0x8a, 0x3d,
  0x58, 0xb5, 0xf8, 0x3e, 0x76, 0x87, 0x16, 0x3d, 0x56, 0xff, 0x36, 0xbd,
  0xeb, 0x1e, 0x60, 0xbe, 0xd9, 0x28, 0x43, 0xbd, 0xa8, 0xfe, 0xb6, 0x3d,
  0x1f, 0x15, 0xa9, 0x3d, 0xe4, 0x9b, 0x41, 0xbd, 0xee, 0x47, 0xb4, 0x3d,
  0x7e, 0xb1, 0x0a, 0x3e, 0x60, 0x1a, 0xf5, 0x3d, 0x49, 0x77, 0xaa, 0xbd,
  0xe6, 0xc7, 0x74, 0x3c, 0xe5, 0x38, 0x1c, 0x3d, 0x1a, 0x44, 0x38, 0xbe,
  0x76, 0x80, 0x77, 0xbe, 0xab, 0x56, 0x17, 0xbe, 0x07, 0xe5, 0x6d, 0x3e,
  0x08, 0x9c, 0x39, 0xbe, 0x4a, 0x43, 0xb4, 0x3d, 0xf5, 0x58, 0x32, 0x3e,
  0x1c, 0xfe, 0x49, 0xbe, 0x87, 0x1f, 0x85, 0x3e, 0x1d, 0xc2, 0x41, 0x3e,
  0xe4, 0xed, 0x24, 0xbe, 0xcd, 0x87, 0xaa, 0x3d, 0xf0, 0x4c, 0xe3, 0x3c,
  0x52, 0xd9, 0x8c, 0x3d, 0x3e, 0x2c, 0x30, 0xbd, 0xd4, 0x15, 0x31, 0x3e,
  0xb8, 0x72, 0x77, 0x3e, 0xd6, 0x19, 0x83, 0x3e, 0xf4, 0x7d, 0xbb, 0xbe,
  0x47, 0x93, 0x2c, 0x3f, 0x65, 0x11, 0x89, 0x3e, 0x8f, 0x44, 0x7a, 0x3e,
  0x58, 0x3c, 0xc6, 0x3e, 0xff, 0x3c, 0xd7, 0xbd, 0x4c, 0xba, 0xec, 0xbd,
  0x67, 0x55, 0xd1, 0x3e, 0xed, 0x48, 0x02, 0xbe, 0x42, 0x99, 0x84, 0xbe,
  0x84, 0xda, 0x49, 0xbe, 0xb7, 0xbc, 0x50, 0x3e, 0x31, 0x55, 0x5f, 0xbd,
  0x0d, 0xc0, 0x7e, 0x3e, 0x43, 0x98, 0x5e, 0xbe, 0x44, 0xf9, 0x5a, 0x3d,
  0x70, 0xfe, 0x53, 0x3e, 0xf4, 0x59, 0x86, 0xbd, 0x27, 0x9b, 0x0e, 0x3e,
  0xff, 0xda, 0xdf, 0x3e, 0xc3, 0xf5, 0x96, 0x3e, 0x66, 0x50, 0xe0, 0xbd,
  0xe5, 0x5a, 0x1a, 0x3f, 0xd5, 0xb3, 0x55, 0x3e, 0xf0, 0x69, 0x88, 0xbe,
  0xf7, 0xca, 0x6c, 0x3e, 0x31, 0x4b, 0x22, 0xbe, 0xe3, 0xbf, 0x3d, 0xbe,
  0xb7, 0x7b, 0x6f, 0x3e, 0x0a, 0x3a, 0xa6, 0xbe, 0x24, 0xa9, 0x01, 0x3f,
  0xcb, 0xdf, 0x32, 0x3f, 0x70, 0x0d, 0x98, 0x3d, 0x8a, 0x41, 0x09, 0xbf,
  0x3f, 0x78, 0xa4, 0xbf, 0x9f, 0xa9, 0xa5, 0xbe, 0xf2, 0xa6, 0xe2, 0x3e,
  0x16, 0xf5, 0x40, 0x3f, 0x82, 0x70, 0xd3, 0x3c, 0xca, 0xd5, 0x27, 0x3c,
  0x86, 0xd6, 0x3f, 0xbf, 0x34, 0xcb, 0x95, 0x3d, 0xe4, 0x2b, 0xc4, 0x3e,
  0x48, 0x63, 0x26, 0x3e, 0x3f, 0x96, 0xe6, 0x3e, 0x0d, 0x9a, 0x96, 0xbd,
  0xe8, 0xc5, 0x1e, 0x3e, 0x11, 0x65, 0x10, 0x3c, 0xdd, 0x2e, 0xf4, 0xbe,
  0xc4, 0xf2, 0x24, 0xbf, 0xb6, 0x53, 0xe6, 0xbd, 0x72, 0x98, 0xe2, 0xbe,
  0x47, 0x3f, 0x0a, 0x3f, 0x44, 0xbd, 0x23, 0xbe, 0xaf, 0x90, 0x12, 0x3e,
  0xc6, 0x47, 0x58, 0xbf, 0x85, 0x21, 0xfb, 0xbd, 0x56, 0xe1, 0x81, 0x3e,
  0xe5, 0x06, 0x3a, 0x3f, 0x60, 0xc4, 0xce, 0x3d, 0x9e, 0xdb, 0xff, 0xff,
  0x04, 0x00, 0x00, 0x00, 0x00, 0x01, 0x00, 0x00, 0x9a, 0x52, 0x33, 0x3d,
  0xbb, 0x34, 0x4d, 0x3d, 0xb7, 0x8d, 0x91, 0x3d, 0x98, 0xb1, 0x74, 0x39,
  0x20, 0xbf, 0x5c, 0xbd, 0xb1, 0x24, 0x9c, 0x3c, 0x53, 0x10, 0x43, 0x3c,
  0x0e, 0x1e, 0x1b, 0xbc, 0xe8, 0x19, 0x9e, 0x3d, 0xc8, 0xd9, 0x8b, 0x3d,
  0x22, 0x81, 0xa6, 0x3d, 0x98, 0xfa, 0xf7, 0x3d, 0xa4, 0xec, 0x3a, 0x3d,
  0x27, 0x12, 0x14, 0x3c, 0xbc, 0x93, 0xa4, 0xbb, 0xc2, 0xe6, 0x88, 0x3d,
  0xa4, 0x70, 0xbb, 0x3d, 0x2f, 0xa1, 0x3f, 0x3c, 0x0d, 0xf5, 0x29, 0x3d,
  0xa9, 0xf0, 0x8b, 0x3c, 0xe2, 0x90, 0xa5, 0x3d, 0x00, 0x00, 0x00, 0x00,
  0x08, 0xb3, 0xf3, 0x3c, 0xa5, 0xd8, 0x23, 0x3d, 0xcc, 0xe4, 0xd7, 0xbc,
  0x1d, 0x6d, 0x07, 0xbc, 0x1d, 0xa0, 0x74, 0x3d, 0x73, 0xa4, 0x15, 0x3b,
  0xb1, 0x87, 0x21, 0x3d, 0x55, 0x9a, 0xb3, 0xbc, 0xbc, 0x67, 0x13, 0xba,
  0x43, 0x2d, 0x43, 0x3c, 0xa8, 0x6a, 0xf0, 0x3c, 0xda, 0xbf, 0x13, 0xbd,
  0x00, 0x00, 0x00, 0x00, 0xc1, 0x81, 0x67, 0x3d, 0xe3, 0xed, 0x85, 0xbd,
  0x0d, 0x60, 0x43, 0xbc, 0x58, 0x86, 0xf1, 0x3c, 0xac, 0xa7, 0x7b, 0x3d,
  0x8f, 0x45, 0x52, 0x3d, 0x48, 0xfd, 0xac, 0x3d, 0x93, 0x69, 0x30, 0x3d,
  0x20, 0x0d, 0x06, 0x3d, 0x41, 0xd0, 0xa6, 0x3a, 0xfd, 0x8e, 0xa9, 0x3d,
  0x33, 0x68, 0x0d, 0xbd, 0xd4, 0xbe, 0x9a, 0xbd, 0x32, 0xbd, 0x22, 0x3d,
  0xe6, 0x6c, 0x38, 0xbd, 0xf8, 0x59, 0x91, 0x3a, 0x9f, 0xbc, 0xd0, 0x3d,
  0xd2, 0xb8, 0xef, 0xbc, 0x4a, 0x85, 0x15, 0x3d, 0xf1, 0x83, 0xc9, 0x3c,
  0x66, 0x91, 0x1d, 0x3b, 0x49, 0x36, 0x3e, 0x3c, 0xec, 0x4b, 0x97, 0x3d,
  0x91, 0xc5, 0x7f, 0x3b, 0x6b, 0x85, 0xba, 0x3c, 0x86, 0x69, 0xf1, 0x3d,
  0xa1, 0x3e, 0x55, 0xbd, 0x01, 0xfd, 0x29, 0x3d, 0x7f, 0xdd, 0x5d, 0xbd,
  0xaa, 0xdc, 0xff, 0xff, 0x04, 0x00, 0x00, 0x00, 0x80, 0x00, 0x00, 0x00,
  0x44, 0xfb, 0x18, 0xbd, 0x5c, 0xd5, 0x8f, 0x3d, 0xbe, 0xc8, 0x27, 0x3d,
  0x78, 0x3d, 0xc8, 0x3b, 0x00, 0x00, 0x00, 0x00, 0xc9, 0xac, 0x87, 0x3d,
  0x05, 0xc8, 0xe6, 0xbc, 0x86, 0xb9, 0x1d, 0x3d, 0x11, 0xdf, 0xb8, 0x3d,
  0xcc, 0xe2, 0xb1, 0x3d, 0x98, 0xc9, 0xd4, 0x3c, 0xce, 0x35, 0x0c, 0x3d,
  0x71, 0x23, 0x39, 0xbc, 0x52, 0x5c, 0x97, 0x3d, 0xac, 0xa1, 0xbc, 0x3d,
  0xf0, 0x6b, 0x8b, 0x3d, 0xe0, 0x93, 0xc0, 0x3d, 0x47, 0x5d, 0xd9, 0xbc,
  0x3f, 0xfe, 0xcd, 0xbc, 0xb3, 0x68, 0x32, 0xbd, 0x80, 0x35, 0xa8, 0xbc,
  0xa1, 0xb4, 0x8c, 0x39, 0x91, 0xe8, 0x8e, 0xba, 0x0f, 0xab, 0xbf, 0x3d,
  0x00, 0x00, 0x00, 0x00, 0xe5, 0x77, 0xbf, 0x3d, 0xf3, 0xdc, 0x6b, 0xbc,
  0xf7, 0xd2, 0x34, 0x3d, 0xd7, 0x80, 0x2e, 0x3e, 0x17, 0x70, 0xb0, 0x3a,
  0x36, 0x3c, 0x7f, 0x3c, 0x85, 0x47, 0x01, 0x3d, 0x36, 0xdd, 0xff, 0xff,
  0x04, 0x00, 0x00, 0x00, 0x10, 0x00, 0x00, 0x00, 0xae, 0x62, 0xa0, 0x3d,
  0xcb, 0xce, 0x38, 0xbc, 0x84, 0x09, 0xe1, 0xba, 0x32, 0xd8, 0xd4, 0xbd,
  0x52, 0xdd, 0xff, 0xff, 0x04, 0x00, 0x00, 0x00, 0x00, 0x20, 0x00, 0x00,
  0xbf, 0x52, 0x05, 0x3d, 0xea, 0x84, 0x9c, 0x3d, 0x6b, 0xe9, 0x5c, 0xbe,
  0xec, 0x53, 0xb2, 0x3d, 0x17, 0x2c, 0xfe, 0xbb, 0x20, 0xc4, 0x74, 0x3d,
  0x04, 0xc1, 0x23, 0x3e, 0x8b, 0x56, 0x46, 0xbe, 0x2c, 0x26, 0xfa, 0xbd,
  0xa3, 0x62, 0x7d, 0xbd, 0x99, 0x59, 0x09, 0x3e, 0xd3, 0x94, 0xaf, 0xbd,
  0x08, 0x78, 0x02, 0xbe, 0xe8, 0x48, 0x35, 0xbe, 0xfc, 0x0a, 0x1b, 0x3e,
  0x54, 0x80, 0x40, 0x3e, 0x98, 0x45, 0xb3, 0x3d, 0xbb, 0xec, 0x90, 0xbe,
  0x0f, 0x7b, 0xa7, 0x3d, 0x5d, 0x3f, 0x65, 0xbe, 0x2e, 0x92, 0x00, 0xbe,
  0xb4, 0x38, 0x3a, 0xbe, 0x0d, 0x6c, 0x36, 0x3e, 0x77, 0xc3, 0x6f, 0xbe,
  0x4a, 0x97, 0x5f, 0x3d, 0x3c, 0x2a, 0x5c, 0xbe, 0xd3, 0x22, 0x86, 0x3c,
  0x72, 0x43, 0xcb, 0x3d, 0xc7, 0x8c, 0xfd, 0x3d, 0x26, 0xad, 0x51, 0x3e,
  0xc9, 0x97, 0x1c, 0x3e, 0x97, 0x8b, 0x36, 0xbe, 0x7e, 0xa5, 0x13, 0xbe,
  0x86, 0xfa, 0x3e, 0xbd, 0x5c, 0x16, 0x22, 0x3e, 0x75, 0x02, 0x34, 0xbd,
  0xac, 0x3c, 0x9f, 0x3c, 0x43, 0x2b, 0x56, 0x3e, 0x40, 0x6e, 0x50, 0xbe,
  0xe7, 0xe7, 0x35, 0x3e, 0x00, 0x42, 0x76, 0xbe, 0x35, 0x80, 0x2e, 0x3e,
  0x7e, 0xc9, 0xc7, 0x3d, 0xde, 0xc1, 0xc0, 0x3d, 0xf1, 0x80, 0x89, 0xbe,
  0x98, 0x12, 0xf4, 0x3b, 0x61, 0x2d, 0x1a, 0x3e, 0x8d, 0xbb, 0x3f, 0x3e,
  0x78, 0x0b, 0x27, 0x3e, 0x65, 0xcc, 0x3b, 0xbd, 0xb3, 0xe2, 0x17, 0x3e,
  0x29, 0x9d, 0x33, 0x3e, 0xac, 0x6c, 0x50, 0xbd, 0x1a, 0x59, 0x40, 0x3e,
  0xf8, 0x2a, 0x43, 0xbe, 0x06, 0x09, 0x85, 0xbd, 0xe1, 0x6e, 0x17, 0xbe,
  0xe5, 0xa7, 0xe3, 0x3d, 0x6c, 0x05, 0x67, 0x3d, 0xe8, 0x3d, 0x59, 0xbe,
  0x00, 0xb6, 0x27, 0xbe, 0xad, 0x12, 0xe9, 0x3d, 0xd4, 0x91, 0x9e, 0xbd,
  0x92, 0xaf, 0x1f, 0xbd, 0x60, 0x03, 0xbe, 0x3e, 0x4a, 0x4f, 0x86, 0x3f,
  0x20, 0x9f, 0x95, 0xbd, 0x2f, 0x26, 0xf3, 0x3d, 0xed, 0xa2, 0x13, 0xbe,
  0xcb, 0x5c, 0x76, 0x3f, 0x1b, 0xb0, 0xc4, 0xbd, 0xf9, 0x9c, 0xf5, 0xbe,
  0x00, 0x22, 0x17, 0xbe, 0x8f, 0x5e, 0x0e, 0x3e, 0xe2, 0x8b, 0x81, 0x3e,
  0x1e, 0x46, 0xed, 0x3e, 0x0c, 0xdc, 0x97, 0x3e, 0x27, 0x68, 0x22, 0xbf,
  0x72, 0x4e, 0x9f, 0x3f, 0x86, 0xa6, 0x11, 0x3f, 0xc8, 0x9e, 0xf6, 0x3d,
  0x6d, 0x00, 0x77, 0x3e, 0x40, 0xf6, 0x9d, 0x3f, 0xc1, 0xe3, 0xa1, 0xbe,
  0x74, 0x48, 0x06, 0xbe, 0x38, 0x7a, 0x1c, 0xbe, 0x46, 0x73, 0xba, 0xbe,
  0x4d, 0x78, 0x33, 0xbe, 0x37, 0xd5, 0x52, 0xbe, 0xe0, 0x77, 0xa8, 0x3c,
  0x4d, 0x01, 0x6d, 0x3e, 0xa3, 0xe5, 0x79, 0xbe, 0xd8, 0xf5, 0x7c, 0xb9,
  0xc5, 0xd1, 0x03, 0xbf, 0x41, 0x29, 0x22, 0xbf, 0x44, 0x2f, 0xd6, 0x3e,
  0xc0, 0xdf, 0xb5, 0x3d, 0x79, 0x5d, 0x96, 0xbe, 0x00, 0xf9, 0x63, 0xbc,
  0x4b, 0xb9, 0x33, 0x3e, 0xd1, 0x4e, 0x6d, 0x3d, 0xa0, 0x75, 0x57, 0xbe,
  0xb2, 0xb8, 0xb7, 0x3d, 0x3c, 0xdf, 0xf5, 0x3d, 0xe4, 0x57, 0x8f, 0xbd,
  0x15, 0x98, 0x9a, 0x3f, 0xaa, 0x07, 0x05, 0xbe, 0x5e, 0x5e, 0xc1, 0x3e,
  0x7f, 0x4d, 0xdf, 0x3b, 0x2d, 0x0f, 0x6f, 0x3f, 0x5b, 0xb9, 0xcc, 0xbd,
  0xea, 0xea, 0x16, 0x3d, 0x29, 0xca, 0xe6, 0x3e, 0x93, 0xe7, 0x92, 0xbe,
  0x84, 0x63, 0x90, 0x3e, 0x5c, 0x18, 0x88, 0x3e, 0x91, 0x82, 0xab, 0xbe,
  0x92, 0x28, 0x6e, 0x3e, 0xd1, 0xaf, 0x81, 0x3d, 0x44, 0xd2, 0x83, 0xbc,
  0x38, 0x42, 0x0f, 0x3e, 0x41, 0xc4, 0x02, 0xbe, 0x5f, 0x96, 0xa3, 0x3f,
  0x5e, 0xfd, 0xb3, 0x3f, 0xda, 0xfe, 0xa6, 0x3f, 0xdf, 0xbd, 0x37, 0xbc,
  0x3a, 0xd3, 0x48, 0x3f, 0x75, 0x0a, 0xbf, 0xbe, 0xc2, 0x5c, 0x0b, 0xbf,
  0x85, 0x89, 0x6d, 0x3f, 0x3f, 0xf0, 0x6d, 0x3f, 0x03, 0x45, 0xef, 0x3d,
  0x7e, 0xc2, 0x95, 0xbd, 0x60, 0xcd, 0x23, 0x3f, 0x65, 0x58, 0x19, 0x3e,
  0xba, 0x00, 0x8d, 0x3f, 0x8f, 0x7a, 0x86, 0x3c, 0x25, 0xa8, 0x8e, 0x3e,
  0x13, 0x03, 0xa1, 0xbd, 0x69, 0x04, 0x3c, 0x3f, 0x2f, 0x3f, 0xa0, 0x3e,
  0x0f, 0x63, 0xb3, 0xbf, 0xb9, 0x98, 0x9c, 0xbe, 0x98, 0x2e, 0x3b, 0x3f,
  0xd9, 0x36, 0x45, 0x3f, 0xc1, 0xae, 0x9e, 0xbe, 0x4d, 0x8a, 0xfb, 0xbe,
  0x0a, 0xf4, 0xae, 0x3e, 0x0c, 0x00, 0x4f, 0xbd, 0x98, 0xbd, 0xb7, 0xbd,
  0x42, 0xea, 0xea, 0x3e, 0x66, 0x64, 0xc0, 0x3c, 0xfd, 0xac, 0x8f, 0x3e,
  0x25, 0x9c, 0xf4, 0x3d, 0xda, 0x67, 0x2a, 0x3c, 0xea, 0xaa, 0x0c, 0x3f,
  0xda, 0xa4, 0xe5, 0xba, 0x48, 0x31, 0x79, 0x3f, 0x2a, 0x6f, 0x77, 0x3f,
  0xa2, 0xa2, 0x46, 0x3f, 0xae, 0xff, 0x72, 0x3e, 0x68, 0x2d, 0x19, 0xbe,
  0x88, 0xff, 0x18, 0x3e, 0xc6, 0x43, 0xaf, 0x3e, 0x9b, 0xc5, 0xb9, 0xbd,
  0x50, 0xf3, 0x27, 0xbe, 0x0e, 0xa3, 0xcf, 0x3d, 0x38, 0x58, 0x80, 0xbd,
  0x0c, 0x7d, 0x0a, 0xbc, 0x8e, 0x40, 0x51, 0x3e, 0x74, 0x61, 0x8b, 0x3f,
  0xd5, 0xa9, 0xee, 0xbd, 0x56, 0x80, 0xf3, 0x3d, 0x53, 0x6c, 0x01, 0xbe,
  0x6c, 0x48, 0x75, 0xbd, 0x14, 0x88, 0x85, 0xbe, 0x48, 0xaa, 0xb6, 0xbe,
  0xb9, 0x7f, 0xba, 0xbd, 0x83, 0x86, 0x4c, 0xbe, 0x2e, 0xe1, 0x2c, 0x3e,
  0xa2, 0x67, 0x61, 0x3f, 0xec, 0x00, 0x4d, 0x3e, 0x40, 0x6e, 0x21, 0xbf,
  0xf5, 0xbb, 0x2d, 0xbe, 0x37, 0x43, 0xf6, 0x3c, 0xb5, 0x5a, 0xba, 0xbd,
  0x70, 0x8c, 0x9d, 0x3e, 0xd7, 0x32, 0xff, 0x3e, 0x69, 0x9e, 0xa8, 0x3d,
  0xdb, 0x18, 0xe7, 0x3b, 0x9c, 0x55, 0x3a, 0xbf, 0xe2, 0x6a, 0xd1, 0x3e,
  0x8a, 0xfd, 0x7d, 0x3f, 0x4b, 0x44, 0xa1, 0x3f, 0x49, 0x12, 0xcb, 0x3f,
  0x1d, 0x66, 0x1d, 0x3c, 0x5b, 0xbd, 0x77, 0x3e, 0x31, 0x78, 0x95, 0x3f,
  0x8f, 0x94, 0x32, 0x3e, 0xd9, 0x8c, 0xc8, 0x3f, 0xd1, 0x03, 0xf6, 0x3d,
  0x3d, 0xb4, 0xfe, 0x3c, 0x72, 0xa3, 0xb3, 0x3d, 0xf6, 0x73, 0xb2, 0x3f,
  0x73, 0x27, 0xbb, 0x3f, 0x28, 0xe9, 0xaf, 0xbe, 0x1d, 0x1d, 0x87, 0x3f,
  0x4d, 0x0d, 0xe4, 0x3f, 0xa6, 0x4e, 0x9e, 0x3f, 0xe3, 0x67, 0x1c, 0xbe,
  0x24, 0xd8, 0xc7, 0x3f, 0x58, 0x50, 0x69, 0x3e, 0x07, 0x63, 0xa8, 0xbd,
  0xd0, 0x06, 0x7e, 0xbd, 0xbd, 0x35, 0xd9, 0x3f, 0x69, 0xe8, 0x4c, 0xbd,
  0x91, 0x31, 0x5a, 0xbd, 0x04, 0x42, 0x64, 0x3d, 0x1c, 0x2f, 0x8a, 0xbe,
  0x79, 0x96, 0xaa, 0x3e, 0x0d, 0x1f, 0xf1, 0x3d, 0xf7, 0xb7, 0xe3, 0x3f,
  0x7e, 0xf0, 0xfc, 0x3f, 0xb2, 0x8f, 0xe8, 0x3f, 0xb8, 0xac, 0x44, 0xbe,
  0x9d, 0x3f, 0x30, 0x3e, 0xd0, 0x28, 0x78, 0x3e, 0xbe, 0x32, 0x92, 0xbd,
  0xb9, 0x13, 0x89, 0xbd, 0x90, 0xf7, 0xd7, 0xbd, 0xbf, 0xb2, 0x92, 0xbe,
  0x8b, 0x80, 0xca, 0x3d, 0x09, 0x03, 0x4b, 0xbe, 0x5c, 0x27, 0x5e, 0x3f,
  0xd5, 0xe1, 0xd0, 0x3f, 0x8a, 0x4c, 0xda, 0x3e, 0xe1, 0x1e, 0x5e, 0x3e,
  0xa9, 0x30, 0xca, 0x3f, 0xb0, 0x16, 0xe7, 0x3b, 0x1f, 0xd8, 0xfb, 0xbd,
  0x71, 0x2d, 0x8c, 0xbd, 0x13, 0xf7, 0x66, 0x3e, 0xa3, 0x1b, 0xae, 0x3e,
  0x95, 0xb2, 0x6f, 0xbd, 0x20, 0x8f, 0xef, 0x3f, 0xe0, 0xea, 0xaf, 0xbe,
  0x22, 0x02, 0x39, 0x3f, 0x16, 0x62, 0xe2, 0xbd, 0x41, 0x70, 0x80, 0xbe,
  0xa6, 0x05, 0x03, 0x3e, 0xbf, 0x9f, 0xc4, 0x3e, 0xa5, 0x0f, 0x35, 0x3f,
  0x81, 0xa8, 0xdc, 0x3f, 0xcf, 0x43, 0x85, 0x3e, 0x7b, 0xb7, 0xbd, 0x3e,
  0xe9, 0x46, 0xc8, 0x3f, 0x08, 0x94, 0xc4, 0x3d, 0x48, 0x3d, 0x97, 0xbd,
  0x4c, 0xa6, 0x4a, 0xbe, 0xf8, 0x37, 0x45, 0xbe, 0xd8, 0xd5, 0x20, 0x3e,
  0x40, 0x9f, 0x25, 0x3c, 0xac, 0x0b, 0x6f, 0x3e, 0x80, 0x44, 0x2d, 0x3c,
  0x80, 0x43, 0xf4, 0xbd, 0xa0, 0xd6, 0x5b, 0xbe, 0x50, 0x5a, 0x5c, 0x3e,
  0x10, 0x61, 0x8a, 0x3d, 0xa0, 0x21, 0x94, 0xbc, 0x20, 0xd4, 0xeb, 0xbd,
  0x88, 0xe7, 0x24, 0xbe, 0x7c, 0x67, 0x7d, 0xbe, 0x00, 0x8d, 0xfd, 0x3d,
  0x50, 0x84, 0x63, 0xbd, 0x6c, 0x0c, 0x71, 0x3e, 0xc0, 0x9b, 0x48, 0x3d,
  0xe0, 0x65, 0xad, 0xbd, 0x80, 0xb7, 0xf8, 0xbb, 0xec, 0xff, 0x2f, 0x3e,
  0x80, 0xf1, 0x77, 0xbd, 0x1c, 0xdd, 0x49, 0xbe, 0x98, 0x72, 0x35, 0xbe,
  0x98, 0x24, 0x6d, 0xbe, 0x18, 0x0c, 0x85, 0x3d, 0x00, 0x8e, 0x6f, 0xbd,
  0xac, 0x15, 0x6d, 0xbe, 0x50, 0x4e, 0xc6, 0xbd, 0x68, 0x21, 0x38, 0xbe,
  0x30, 0x7f, 0x16, 0xbd, 0x9c, 0xda, 0x6e, 0xbe, 0x38, 0x93, 0x60, 0x3e,
  0x80, 0xe7, 0x5b, 0xbe, 0xe8, 0x7d, 0x09, 0x3e, 0xf8, 0xc0, 0x43, 0x3e,
  0x00, 0x60, 0xc7, 0xbd, 0x60, 0xfe, 0xe6, 0xbd, 0x28, 0x57, 0xb8, 0xbd,
  0xa8, 0x8a, 0x1b, 0xbe, 0xa8, 0xcd, 0xbb, 0x3d, 0x00, 0x14, 0x8a, 0xbc,
  0xcc, 0xce, 0x54, 0xbe, 0xd0, 0x90, 0x33, 0x3d, 0x24, 0x79, 0x07, 0x3e,
  0x4c, 0xb2, 0x67, 0xbe, 0x80, 0xf9, 0xda, 0xbc, 0x84, 0xf0, 0x2a, 0xbe,
  0xbc, 0xc3, 0x26, 0xbe, 0x9c, 0xbc, 0x76, 0xbe, 0x90, 0x3c, 0x13, 0xbe,
  0x68, 0xbf, 0x25, 0x3e, 0x70, 0x75, 0x9b, 0x3d, 0xe0, 0x38, 0x11, 0x3d,
  0x94, 0x73, 0x08, 0xbe, 0xb0, 0x34, 0x79, 0xbd, 0x90, 0xd1, 0x01, 0x3d,
  0x40, 0x4f, 0xa1, 0xbc, 0x70, 0xd9, 0x0d, 0xbd, 0xd0, 0x6e, 0x35, 0x3e,
  0xb4, 0x76, 0x6c, 0xbe, 0x40, 0x06, 0x05, 0xbc, 0xbd, 0x92, 0x40, 0x3f,
  0x92, 0x8e, 0x2a, 0xbf, 0x7d, 0xc4, 0x8b, 0xbf, 0xed, 0x6d, 0x9a, 0xbe,
  0x9b, 0x0f, 0x19, 0x3e, 0x8e, 0xf8, 0x4d, 0xbf, 0x45, 0xc5, 0xa0, 0x3e,
  0x2c, 0x65, 0x91, 0xbf, 0xa7, 0x79, 0x4a, 0x3e, 0x37, 0x83, 0x06, 0x3e,
  0x83, 0xd8, 0xa1, 0x3e, 0xf8, 0x00, 0x27, 0xbf, 0xd0, 0xfd, 0xd4, 0x3d,
  0x6b, 0xf0, 0x8e, 0x3f, 0x50, 0x01, 0x1e, 0x3f, 0xbd, 0x74, 0xd4, 0xbe,
  0xa6, 0x9a, 0x0f, 0xbf, 0xad, 0x6d, 0xa9, 0x3e, 0x39, 0x54, 0x34, 0x3f,
  0x6e, 0x80, 0x01, 0xbf, 0xf3, 0x27, 0x8e, 0xbd, 0x28, 0xe3, 0x21, 0xbe,
  0x2d, 0xce, 0x96, 0xbe, 0xee, 0x92, 0x94, 0xbc, 0x6a, 0x5f, 0x69, 0x3e,
  0x19, 0xfc, 0xc0, 0xbd, 0xc1, 0x94, 0xaa, 0x3d, 0x3f, 0xf0, 0xf9, 0xbe,
  0x47, 0xb7, 0x31, 0x3c, 0x2c, 0x9e, 0x2d, 0xbf, 0xfc, 0xd0, 0x45, 0xbf,
  0xce, 0xc1, 0xde, 0xbe, 0xab, 0xb3, 0x4e, 0x3d, 0xcb, 0x33, 0xe3, 0x3e,
  0x48, 0x3e, 0xa9, 0x3d, 0xe8, 0x9e, 0x2a, 0x3e, 0x3b, 0x41, 0xc3, 0x3d,
  0x3e, 0x79, 0x25, 0xbc, 0xc7, 0x0f, 0x81, 0xbe, 0x92, 0xf1, 0x08, 0xbc,
  0x73, 0xca, 0x15, 0x3e, 0x1f, 0xc7, 0x9e, 0x3c, 0x27, 0x6a, 0x73, 0xbf,
  0x95, 0x66, 0x60, 0x3e, 0x61, 0x76, 0x8a, 0xbe, 0x10, 0x4d, 0xa4, 0x3e,
  0x5d, 0x79, 0xa5, 0xbd, 0xcb, 0x86, 0x12, 0xbe, 0xf0, 0x88, 0xe0, 0x3e,
  0xb5, 0x45, 0xf7, 0x3d, 0xe3, 0x57, 0x07, 0xbe, 0xf8, 0x24, 0x32, 0xbe,
  0xec, 0x0b, 0x18, 0xbf, 0x20, 0xe2, 0x63, 0xbe, 0x2f, 0xab, 0x8a, 0x3f,
  0x09, 0x6b, 0x04, 0x3d, 0x77, 0x4e, 0x66, 0x3e, 0xe9, 0x5e, 0x57, 0x3c,
  0x04, 0xa0, 0x16, 0xbe, 0xd6, 0x44, 0x46, 0xbf, 0x17, 0x19, 0x97, 0xbd,
  0x48, 0x55, 0xb8, 0xbd, 0xcb, 0x28, 0x55, 0x3f, 0x09, 0x3d, 0x8f, 0xbe,
  0xd3, 0x02, 0x41, 0x3e, 0x8f, 0x5f, 0x24, 0xbe, 0xb3, 0xe9, 0xea, 0x3c,
  0xfa, 0x27, 0x00, 0xbd, 0x57, 0x28, 0x22, 0x3e, 0x9a, 0x12, 0x50, 0x3e,
  0x6f, 0xce, 0x30, 0xbe, 0x2d, 0xa4, 0x50, 0xbc, 0xff, 0x61, 0x8d, 0xbe,
  0x78, 0xc3, 0xfd, 0x3d, 0xe9, 0x08, 0x49, 0x3c, 0x40, 0xb1, 0x0d, 0xbd,
  0x6d, 0xf8, 0x13, 0x3e, 0xc3, 0x12, 0xb8, 0x3d, 0xd6, 0x6e, 0xc1, 0xbd,
  0x0a, 0xff, 0x0c, 0xbe, 0xed, 0x20, 0x08, 0x3d, 0x84, 0x15, 0xdf, 0xbc,
  0x1b, 0xe5, 0xc6, 0xbd, 0xa0, 0x90, 0x6f, 0xbe, 0xe1, 0x6b, 0xd0, 0x3c,
  0x60, 0x78, 0x1b, 0x3e, 0xdc, 0x74, 0x26, 0xbe, 0x48, 0x51, 0x9d, 0xbc,
  0x3c, 0x60, 0x0b, 0x3d, 0x10, 0x41, 0xa5, 0xbd, 0xf7, 0xee, 0xaf, 0xbd,
  0xdc, 0xb4, 0x73, 0x3d, 0x66, 0x86, 0x3f, 0xbc, 0x07, 0x44, 0x9d, 0xbd,
  0x80, 0x0e, 0x18, 0xbe, 0x87, 0x31, 0x87, 0x3d, 0x1a, 0x37, 0xd5, 0x3b,
  0x17, 0x8b, 0x09, 0x3e, 0x70, 0xf8, 0x2a, 0x3e, 0xcc, 0xa2, 0x51, 0x3e,
  0xe0, 0x35, 0xf6, 0xbc, 0x78, 0x77, 0xcf, 0xbd, 0x52, 0x91, 0x66, 0xbd,
  0x45, 0xb3, 0x91, 0xbd, 0xa7, 0xde, 0x34, 0x3d, 0xc4, 0x28, 0x09, 0x3e,
  0x6f, 0x01, 0x59, 0x3e, 0x2d, 0xc2, 0xae, 0xbd, 0x5f, 0x1a, 0xa0, 0x3d,
  0x58, 0x4e, 0x20, 0xbe, 0xfb, 0xec, 0x46, 0xbe, 0xbb, 0x17, 0x48, 0x3e,
  0xd7, 0x26, 0x4a, 0x3e, 0x9d, 0x27, 0xd3, 0xbd, 0x6b, 0xb8, 0x17, 0x3e,
  0x66, 0x53, 0xc7, 0x3c, 0xae, 0x11, 0x45, 0xbe, 0xa2, 0xb0, 0x84, 0xbe,
  0x6b, 0xfb, 0x73, 0xbd, 0x42, 0xe5, 0x8a, 0xbe, 0xd0, 0x8f, 0xcf, 0xbd,
  0x0a, 0xe6, 0x51, 0x3b, 0xbb, 0xe8, 0xfd, 0xbd, 0x64, 0x35, 0x8c, 0x3d,
  0x78, 0xda, 0x28, 0xbe, 0x48, 0x5c, 0x70, 0xbe, 0xc7, 0xcf, 0x58, 0xbe,
  0x52, 0xa3, 0x25, 0xbd, 0x51, 0x39, 0x8e, 0x3e, 0xa4, 0x38, 0xaa, 0x3f,
  0x4d, 0x66, 0xb6, 0x3f, 0xe0, 0xfa, 0xa6, 0x3b, 0xfa, 0xb4, 0x80, 0xbe,
  0xc7, 0xc8, 0x9d, 0x3f, 0xa2, 0xde, 0x29, 0x3d, 0x7f, 0x37, 0x1b, 0x3f,
  0x92, 0xdb, 0x45, 0xbd, 0x35, 0x3b, 0xbe, 0xbd, 0x14, 0xd4, 0x2f, 0xbc,
  0x4a, 0x7c, 0x8d, 0x3f, 0xf6, 0x38, 0xa4, 0x3e, 0xed, 0x87, 0xd7, 0x3d,
  0x86, 0x78, 0x95, 0x3f, 0xf5, 0xcb, 0x73, 0x3f, 0xad, 0xfa, 0x57, 0x3f,
  0x77, 0xc3, 0x25, 0x3e, 0x19, 0x4b, 0x25, 0x3f, 0x6f, 0xb6, 0xe3, 0x3e,
  0x33, 0x0b, 0x85, 0xbd, 0x00, 0xb5, 0x6b, 0x3d, 0x4b, 0xdd, 0x45, 0x3f,
  0xa3, 0x6e, 0x83, 0xbe, 0x9d, 0xdc, 0x92, 0xbe, 0x00, 0x8b, 0x31, 0xbd,
  0x96, 0x21, 0x07, 0x3e, 0xea, 0xf7, 0xcb, 0x3f, 0x1f, 0x23, 0x1c, 0xbd,
  0x68, 0x89, 0xae, 0x3e, 0xbc, 0x7f, 0x64, 0x3f, 0x28, 0x77, 0x07, 0x3f,
  0x72, 0xa1, 0x36, 0x3e, 0x43, 0x20, 0xed, 0xbe, 0x80, 0x2f, 0xa4, 0xbc,
  0xcf, 0x6e, 0x99, 0xbe, 0x38, 0x64, 0x42, 0x3e, 0x2c, 0xb8, 0x4a, 0x3e,
  0x2e, 0xfc, 0xf7, 0xbe, 0xcd, 0xdb, 0xe9, 0x3e, 0xc5, 0x98, 0x71, 0xbe,
  0xd3, 0x90, 0xac, 0x3f, 0x95, 0x7a, 0xf7, 0x3e, 0x76, 0xb9, 0x17, 0x3f,
  0x3d, 0x46, 0x59, 0xbe, 0x71, 0x66, 0x91, 0x3f, 0x40, 0xdc, 0x9a, 0x3d,
  0xe7, 0xb9, 0x84, 0x3d, 0x69, 0x99, 0x82, 0xbe, 0xaf, 0xb5, 0x7a, 0xbe,
  0xd3, 0x82, 0x8a, 0x3d, 0x34, 0xc9, 0xbb, 0x3d, 0xee, 0xb8, 0x8b, 0x3d,
  0xd6, 0x85, 0xbd, 0x3d, 0xd1, 0x87, 0xa1, 0x3d, 0x6d, 0x54, 0x37, 0x3e,
  0x07, 0xc9, 0x5b, 0xbf, 0x00, 0xba, 0x5b, 0xbd, 0xe1, 0xcd, 0x96, 0x3f,
  0x4a, 0x50, 0xa5, 0x3f, 0x18, 0x1f, 0xdc, 0x3f, 0x7d, 0x4f, 0xf6, 0x3d,
  0xc8, 0xc3, 0xd9, 0x3f, 0xeb, 0x0e, 0x05, 0x3f, 0x01, 0xf6, 0x8b, 0x3e,
  0x73, 0x50, 0xa1, 0x3e, 0x74, 0xf9, 0x3e, 0x3e, 0x38, 0xcd, 0x00, 0x3e,
  0xff, 0xc6, 0x00, 0xbe, 0xf7, 0xf8, 0x25, 0x3f, 0xcf, 0x8d, 0xe2, 0xbd,
  0xfa, 0x74, 0x42, 0xbf, 0x2d, 0xad, 0x8a, 0xbd, 0x45, 0xc7, 0x06, 0x3e,
  0x8e, 0x9c, 0x9b, 0x3e, 0x93, 0x8d, 0x0d, 0xbf, 0x4a, 0xe9, 0xb4, 0xbd,
  0x2c, 0x6e, 0x81, 0xbf, 0x38, 0xfc, 0x73, 0xbe, 0xf8, 0x36, 0xf0, 0x3e,
  0xa4, 0x0f, 0xb5, 0x3e, 0x28, 0xf0, 0xdb, 0xbd, 0xce, 0xae, 0xc7, 0xbd,
  0x0b, 0x87, 0x72, 0xbe, 0x38, 0xbf, 0x81, 0xbd, 0x30, 0x0c, 0x83, 0xbd,
  0x4d, 0x5e, 0xfc, 0xbe, 0xda, 0x98, 0xcc, 0x3d, 0x6c, 0xd0, 0x9d, 0x3c,
  0xfa, 0x41, 0x48, 0xbe, 0x07, 0x14, 0x89, 0xbd, 0x30, 0xee, 0x02, 0x3f,
  0xd8, 0xfc, 0xc7, 0x3d, 0xe8, 0xf4, 0x73, 0xbe, 0x4b, 0xc7, 0xab, 0xbf,
  0xf2, 0x87, 0xbb, 0x3e, 0xe2, 0x68, 0x4e, 0xbe, 0x9e, 0x27, 0x07, 0x3e,
  0xb4, 0xa2, 0x15, 0x3e, 0x2e, 0xa9, 0xd9, 0xbd, 0x9d, 0x67, 0xe3, 0xbd,
  0xf4, 0x9b, 0x68, 0xbe, 0x09, 0x12, 0x31, 0x3e, 0x3d, 0x2d, 0xac, 0xbd,
  0xf2, 0xdc, 0x52, 0x3e, 0x2b, 0x78, 0x33, 0x3f, 0x5e, 0xd4, 0x13, 0xbf,
  0xce, 0x66, 0x88, 0x3e, 0xe1, 0x68, 0x94, 0x3e, 0x5a, 0x45, 0x7b, 0x3e,
  0x04, 0xbc, 0x5e, 0xbe, 0x23, 0x24, 0x84, 0xbd, 0x00, 0x43, 0xba, 0x3e,
  0xa3, 0x11, 0x23, 0xbe, 0x91, 0x11, 0x92, 0xbd, 0x5f, 0xc1, 0xc8, 0x3d,
  0x24, 0x46, 0x39, 0xbf, 0xfa, 0x05, 0xf6, 0x3d, 0x1a, 0x8a, 0xbf, 0xbe,
  0xff, 0xe9, 0xb1, 0x3c, 0xd0, 0xa3, 0xdf, 0x3e, 0x53, 0x1c, 0x9e, 0x3e,
  0x46, 0x8d, 0xbb, 0x3f, 0x0e, 0xdb, 0x93, 0x3f, 0x42, 0x2c, 0x3e, 0x3f,
  0xc4, 0x97, 0x36, 0x3d, 0x89, 0x1a, 0xe9, 0x3e, 0xcd, 0x9d, 0x82, 0xbf,
  0xe9, 0xbb, 0x21, 0xbe, 0xa7, 0xba, 0xa4, 0xbf, 0x88, 0x41, 0x88, 0xbf,
  0x7d, 0x63, 0x8d, 0xbd, 0x59, 0xf3, 0x59, 0x3e, 0xdc, 0xbc, 0x53, 0xbf,
  0x66, 0xe5, 0xf1, 0xbd, 0x8b, 0x45, 0x3c, 0xbf, 0x30, 0x74, 0x81, 0x3e,
  0xf5, 0x39, 0x64, 0x3e, 0x80, 0xdf, 0x04, 0x3e, 0x81, 0xd2, 0x76, 0xbf,
  0x6f, 0xec, 0x44, 0xbf, 0x7b, 0x20, 0x6b, 0x3f, 0x91, 0x84, 0x7e, 0xbe,
  0x6b, 0x9b, 0x8e, 0xbf, 0xd9, 0x77, 0x8d, 0xbf, 0xc8, 0xd1, 0x10, 0x3e,
  0x75, 0x04, 0x13, 0xbf, 0x57, 0x0c, 0x83, 0xbe, 0xc6, 0x88, 0x9f, 0x3e,
  0x80, 0xfb, 0x28, 0x3c, 0x2b, 0xf6, 0x28, 0xbf, 0xaf, 0x0b, 0x2c, 0xbd,
  0x70, 0x5a, 0x28, 0x3e, 0xf0, 0x84, 0x10, 0x3e, 0x48, 0x54, 0xae, 0x3e,
  0xfd, 0xd4, 0xfb, 0xbe, 0x05, 0xbe, 0xca, 0x3d, 0x36, 0xc4, 0x37, 0xbf,
  0x88, 0x8c, 0x41, 0xbf, 0x28, 0x2b, 0x61, 0xbf, 0x2c, 0x0e, 0x34, 0x3e,
  0xca, 0xf2, 0x6f, 0x3d, 0x88, 0x37, 0xa5, 0xbd, 0xc8, 0xd8, 0x78, 0x3e,
  0x10, 0x6c, 0x49, 0x3e, 0xb4, 0x9c, 0x21, 0xbc, 0xd9, 0x27, 0x44, 0xbe,
  0x6e, 0x82, 0x49, 0xbd, 0xd0, 0x39, 0x9b, 0x3d, 0xae, 0x81, 0x12, 0xbf,
  0x7a, 0x63, 0x99, 0xbf, 0xa9, 0x56, 0x62, 0xbe, 0x4d, 0x76, 0x08, 0xbe,
  0xc3, 0x1b, 0x3e, 0xbf, 0xa2, 0xa7, 0x61, 0xbe, 0x54, 0x85, 0x3c, 0x3e,
  0x83, 0xbf, 0x58, 0xbb, 0x3f, 0x2b, 0x0b, 0xbd, 0x0c, 0x3c, 0x53, 0x3e,
  0xf6, 0x85, 0xa5, 0x3e, 0x11, 0x7f, 0x87, 0xbf, 0x31, 0x0a, 0x2c, 0x3e,
  0x86, 0x6a, 0xdc, 0xbd, 0x2c, 0x0e, 0xa5, 0x3e, 0x08, 0x32, 0xbc, 0x3c,
  0x92, 0xab, 0x85, 0x3e, 0x20, 0x8a, 0xcd, 0xbe, 0xca, 0xe7, 0x1b, 0xbf,
  0xa3, 0xe1, 0x64, 0xbf, 0x1f, 0x95, 0x09, 0x3e, 0xe9, 0xa7, 0x0d, 0xbd,
  0x2c, 0xdf, 0x1f, 0xbf, 0xcb, 0xc7, 0xee, 0x3e, 0x1f, 0xb5, 0x85, 0x3f,
  0x49, 0x47, 0xd2, 0x3e, 0x11, 0xb0, 0x29, 0x3d, 0x7f, 0x5a, 0x77, 0xbe,
  0x3f, 0x6b, 0x50, 0x3f, 0x13, 0xf1, 0xc8, 0x3b, 0x40, 0xda, 0xa7, 0xbc,
  0x8b, 0xe4, 0x23, 0xbb, 0x82, 0x66, 0x86, 0xbe, 0xbe, 0xe9, 0x5e, 0xbe,
  0x6b, 0x58, 0x22, 0x3f, 0xbb, 0xe8, 0xc4, 0x3e, 0xbd, 0xf2, 0x69, 0xbf,
  0xe5, 0x90, 0x2b, 0x3f, 0x8d, 0x34, 0x63, 0x3f, 0x32, 0x06, 0x16, 0x3f,
  0xbf, 0x40, 0x5e, 0xbc, 0x44, 0x99, 0x35, 0x3f, 0x53, 0x92, 0x65, 0xbe,
  0xca, 0xfe, 0x84, 0x3e, 0x90, 0x3e, 0x52, 0x3e, 0xcd, 0x1c, 0xd0, 0xbe,
  0x58, 0x05, 0x7a, 0x3d, 0x11, 0x62, 0x7f, 0xbd, 0xe8, 0xc0, 0xa5, 0x3d,
  0x65, 0x0a, 0x62, 0x3e, 0x36, 0x10, 0x94, 0xbb, 0xcf, 0x51, 0x7d, 0xbe,
  0xcd, 0x2b, 0x13, 0x3e, 0x56, 0x5f, 0x62, 0xbe, 0x8e, 0xba, 0x80, 0x3e,
  0x57, 0xb1, 0xcb, 0x3d, 0x8a, 0x56, 0x02, 0xbe, 0x00, 0xa1, 0x53, 0xbd,
  0xc3, 0x85, 0x73, 0xbd, 0x69, 0x56, 0x32, 0x3e, 0x77, 0x62, 0x07, 0x3e,
  0xb1, 0x79, 0x29, 0x3e, 0x68, 0x8a, 0xe4, 0x3e, 0x37, 0xbc, 0xcd, 0xbc,
  0x85, 0x9f, 0x4a, 0x3f, 0x2a, 0x1b, 0xcf, 0x3e, 0xbe, 0x01, 0x63, 0x3e,
  0x29, 0xef, 0x88, 0xbe, 0x74, 0x3d, 0x70, 0x3f, 0x82, 0xe4, 0xa7, 0xbc,
  0x9b, 0xca, 0x42, 0xbd, 0xc9, 0x67, 0x01, 0x3e, 0x00, 0xbb, 0x8c, 0x3d,
  0x26, 0x56, 0x82, 0x3e, 0x45, 0x2d, 0xfa, 0x3d, 0x29, 0xbf, 0xab, 0x3e,
  0xb1, 0x70, 0xb7, 0x3d, 0x79, 0x49, 0xdc, 0x3d, 0xe8, 0x97, 0x56, 0xbe,
  0x0a, 0x6a, 0x90, 0xbc, 0xe9, 0xce, 0x7f, 0x3c, 0x5e, 0xb4, 0x91, 0x3f,
  0x14, 0xb1, 0x4c, 0x3f, 0xeb, 0xe4, 0xa3, 0x3f, 0xdb, 0x52, 0x46, 0xbb,
  0xc3, 0xe5, 0x2b, 0x3f, 0xbb, 0xa2, 0x2b, 0xbd, 0x58, 0x6b, 0x6b, 0x3d,
  0xfc, 0xcd, 0xb7, 0x3f, 0xca, 0x2a, 0x87, 0x3f, 0xf0, 0x77, 0x10, 0xbe,
  0x69, 0xd7, 0xf2, 0x3d, 0x4c, 0x61, 0x68, 0x3f, 0xda, 0xe3, 0x65, 0x3d,
  0xd1, 0x47, 0x17, 0x3f, 0xdd, 0x21, 0xcb, 0x3d, 0x46, 0x9d, 0xee, 0xbd,
  0xed, 0x7a, 0x1f, 0x3e, 0x2d, 0x25, 0x53, 0x3f, 0x04, 0x47, 0x3d, 0x3f,
  0xfb, 0x23, 0x69, 0xbf, 0xde, 0xa9, 0xa0, 0x3e, 0x8f, 0x4d, 0x69, 0x3f,
  0xee, 0x2e, 0x66, 0x3f, 0x92, 0x13, 0x12, 0x3d, 0x60, 0x2d, 0x16, 0x3f,
  0x22, 0xdf, 0xd1, 0x3e, 0x73, 0x39, 0x18, 0xbe, 0x48, 0x25, 0x81, 0x3d,
  0x13, 0x97, 0x3c, 0x3e, 0xc6, 0x58, 0x51, 0x3e, 0xe0, 0x94, 0x50, 0xbe,
  0xb0, 0xfa, 0x3f, 0x3d, 0x86, 0x1b, 0x9b, 0xbe, 0xee, 0xaf, 0x0a, 0x3f,
  0xb9, 0x46, 0x1c, 0x3e, 0x14, 0xa4, 0x29, 0x3f, 0x97, 0xd4, 0xd4, 0x3e,
  0x30, 0xfa, 0x84, 0x3f, 0x88, 0x40, 0x89, 0x3d, 0x0c, 0xae, 0xe0, 0xbe,
  0x28, 0xb2, 0xb5, 0xbd, 0x8b, 0xbc, 0xb2, 0x3d, 0xf8, 0x8c, 0xd5, 0x3c,
  0xa0, 0x4f, 0xe5, 0x3c, 0x60, 0x6e, 0x66, 0x3d, 0x58, 0x97, 0x1c, 0xbd,
  0x26, 0xab, 0x13, 0xbe, 0x15, 0xc5, 0x48, 0x3f, 0xf6, 0x1a, 0x3d, 0x3f,
  0xb5, 0xb0, 0x5c, 0x3e, 0x6c, 0x3d, 0x6e, 0xbd, 0x94, 0xf4, 0x60, 0x3f,
  0x4e, 0x08, 0x46, 0xbe, 0x72, 0x56, 0x31, 0xbe, 0x08, 0x3e, 0x49, 0xbe,
  0x07, 0xe3, 0x7a, 0x3e, 0xc7, 0x2c, 0x87, 0x3e, 0x32, 0x36, 0x44, 0x3c,
  0xab, 0xc5, 0x42, 0x3f, 0x27, 0xc5, 0x31, 0xbe, 0x0d, 0x91, 0x16, 0xbe,
  0x27, 0x59, 0xcf, 0xbd, 0x48, 0xe3, 0x2a, 0x3e, 0x12, 0x21, 0x18, 0x3e,
  0x82, 0xe3, 0x62, 0x3f, 0xb0, 0xfa, 0x9e, 0x3f, 0x30, 0xcd, 0x8c, 0x3f,
  0x60, 0x93, 0x56, 0xbd, 0x19, 0xbb, 0x13, 0x3e, 0x58, 0x68, 0x5d, 0x3d,
  0xe2, 0x61, 0x7a, 0x3c, 0x4f, 0x39, 0x0f, 0x3e, 0x44, 0x8b, 0xe9, 0xbd,
  0xb6, 0x29, 0x9d, 0xbd, 0xd1, 0x19, 0x38, 0x3e, 0x27, 0x3a, 0x51, 0x3d,
  0xc7, 0x9c, 0x13, 0x3d, 0xaf, 0x4e, 0x0c, 0x3e, 0xb4, 0xb9, 0x4e, 0xbe,
  0xd3, 0xcc, 0x9c, 0xbd, 0x76, 0x1c, 0xc7, 0x3d, 0x12, 0xf6, 0xa9, 0xbd,
  0xb0, 0x74, 0x6b, 0xbe, 0x42, 0x2c, 0x43, 0x3e, 0xf0, 0xe8, 0x30, 0xbe,
  0xd7, 0x5e, 0xf6, 0x3c, 0x62, 0x41, 0xd9, 0x3d, 0xbd, 0x15, 0x60, 0x3e,
  0x98, 0xad, 0x82, 0xbe, 0xa2, 0x7b, 0xa2, 0x3d, 0xc5, 0x48, 0x41, 0x3e,
  0x70, 0x6a, 0x63, 0xbd, 0x08, 0x47, 0x54, 0xbe, 0x30, 0x7f, 0x9e, 0x3d,
  0x88, 0x31, 0x3e, 0xbe, 0xc4, 0xfa, 0x79, 0x3e, 0x07, 0x08, 0xce, 0x3d,
  0x2a, 0x26, 0x21, 0xbe, 0x69, 0xb2, 0xcd, 0xbd, 0xf1, 0x0d, 0xb4, 0xbd,
  0x64, 0x11, 0xd7, 0x3d, 0x13, 0xf6, 0x15, 0x3e, 0xf9, 0xbd, 0x86, 0xbe,
  0xa7, 0x5f, 0x26, 0x3d, 0x0c, 0xf1, 0x0f, 0x3e, 0xf3, 0xd9, 0x70, 0xbd,
  0x56, 0x94, 0x19, 0x3e, 0xdd, 0xc4, 0x03, 0x3e, 0xc8, 0xba, 0x1b, 0xbe,
  0xe8, 0x2f, 0xb6, 0xbd, 0x81, 0x93, 0xc1, 0xbd, 0x49, 0xaa, 0xa4, 0x3d,
  0xc9, 0xf4, 0x46, 0x3e, 0x50, 0xf2, 0x0e, 0xbe, 0x76, 0x66, 0x6a, 0x3e,
  0x10, 0xae, 0x9a, 0x3d, 0x69, 0x52, 0xc7, 0xbc, 0xf7, 0xb2, 0x48, 0x3e,
  0xf8, 0xd6, 0xe3, 0xbd, 0x03, 0xe4, 0xa3, 0xbd, 0xc9, 0x76, 0x38, 0xbe,
  0xfc, 0xf5, 0x8d, 0x3d, 0x31, 0xc9, 0x2f, 0x3e, 0xcd, 0x45, 0x6e, 0xbe,
  0x39, 0x6c, 0x34, 0xbe, 0xd8, 0xfb, 0x68, 0xbd, 0xd4, 0x8d, 0x8e, 0xbd,
  0xb7, 0x39, 0xb0, 0x3c, 0x22, 0xbb, 0x62, 0xbe, 0x59, 0x6d, 0x71, 0xbe,
  0x8a, 0x29, 0x11, 0xbd, 0x43, 0xfc, 0x00, 0xbd, 0x9e, 0x39, 0x20, 0x3e,
  0xb3, 0x8f, 0x06, 0x3e, 0x76, 0x5c, 0x0d, 0x3f, 0x9c, 0x8d, 0x66, 0xbf,
  0x64, 0xb9, 0x90, 0xbf, 0x93, 0x18, 0x28, 0xbe, 0x47, 0xa4, 0xab, 0x3e,
  0xf6, 0x15, 0x09, 0xbf, 0xb6, 0x50, 0x34, 0x3e, 0xac, 0x46, 0x54, 0xbf,
  0x23, 0x70, 0x91, 0x3e, 0x50, 0xfb, 0x07, 0xbe, 0x1a, 0x49, 0xbc, 0x3e,
  0xb4, 0x90, 0x58, 0xbf, 0x0e, 0x40, 0x05, 0xbf, 0xf4, 0x63, 0x86, 0x3f,
  0x7e, 0x07, 0x8f, 0x3c, 0x4a, 0x93, 0x66, 0xbf, 0xdb, 0x05, 0x52, 0xbf,
  0x02, 0x74, 0x21, 0x3d, 0x9c, 0xc1, 0x13, 0x3e, 0xad, 0x92, 0x40, 0xbe,
  0xf5, 0x0d, 0x50, 0x3e, 0xc0, 0xb5, 0x9c, 0xbc, 0xdd, 0xae, 0xe2, 0xbe,
  0xfb, 0x7a, 0xd0, 0x3d, 0x5d, 0x34, 0xb5, 0xbd, 0x80, 0x43, 0xe4, 0x3b,
  0x80, 0xd4, 0x40, 0x3e, 0x06, 0xa4, 0x14, 0xbf, 0xf2, 0x19, 0x4d, 0xbe,
  0x25, 0xe6, 0x3b, 0xbf, 0x63, 0xe5, 0x5f, 0xbf, 0x0b, 0x12, 0x31, 0xbf,
  0x27, 0x9e, 0x36, 0x3e, 0xfa, 0xbc, 0x00, 0x3f, 0x78, 0x87, 0x3c, 0x3e,
  0xb1, 0xd6, 0x9a, 0x3b, 0x8b, 0xaf, 0x58, 0x3d, 0xb3, 0x77, 0x32, 0xbe,
  0xa4, 0x7d, 0xc4, 0x3d, 0x6d, 0x74, 0xa4, 0x3b, 0x7b, 0x48, 0x7d, 0x3e,
  0xba, 0x68, 0x90, 0xbe, 0xc1, 0x75, 0x87, 0xbf, 0xd3, 0x10, 0x10, 0x3e,
  0xc3, 0x93, 0x01, 0xbe, 0x10, 0xb8, 0x7a, 0xbe, 0xe7, 0x29, 0x15, 0x3e,
  0x21, 0xd7, 0x64, 0x3d, 0x73, 0xd2, 0xa9, 0x3e, 0x58, 0x7b, 0x7f, 0x3e,
  0x59, 0xb7, 0xdd, 0x3d, 0x89, 0x14, 0xa4, 0x3d, 0x0d, 0x94, 0x4d, 0xbf,
  0xc1, 0x96, 0xcf, 0x3d, 0x12, 0x64, 0x5f, 0x3f, 0x17, 0xae, 0x0f, 0x3e,
  0x36, 0xd7, 0x1a, 0xbe, 0xe5, 0xb1, 0x11, 0xbe, 0xb1, 0xd3, 0xe9, 0xbe,
  0x84, 0x1f, 0x80, 0xbf, 0x62, 0x18, 0x10, 0xbf, 0xb1, 0x76, 0xc2, 0x3d,
  0xcd, 0x39, 0x90, 0x3e, 0xcf, 0x83, 0xf8, 0xbe, 0x3e, 0xb2, 0x5a, 0xbf,
  0x0b, 0xb4, 0x80, 0xbe, 0x84, 0xd9, 0x0a, 0x3f, 0x5b, 0xb6, 0xb9, 0x3e,
  0x19, 0x12, 0xb8, 0xbd, 0xe0, 0x81, 0x02, 0xbf, 0x1f, 0x0c, 0x78, 0xbe,
  0x44, 0xac, 0x3d, 0x3f, 0xdd, 0x6d, 0x0e, 0x3e, 0xe5, 0xb1, 0x1f, 0x3e,
  0x70, 0x97, 0xb0, 0x3a, 0xc8, 0xa7, 0xb7, 0x3d, 0xf5, 0xd9, 0xd9, 0xbe,
  0x52, 0xb3, 0x09, 0xbf, 0xd8, 0xad, 0x30, 0xbf, 0x2c, 0xdb, 0x33, 0xbf,
  0x42, 0x26, 0x5c, 0xbd, 0x7a, 0x7e, 0x3d, 0x3d, 0x1c, 0x0c, 0xaa, 0xbf,
  0x39, 0xd2, 0x0e, 0x3e, 0xcc, 0xc1, 0xa5, 0x3d, 0xc4, 0xe8, 0x63, 0x3e,
  0xdf, 0xd3, 0xa6, 0xbd, 0xce, 0xc0, 0xbe, 0x3e, 0x19, 0xf5, 0x2c, 0x3e,
  0x98, 0xd7, 0x19, 0x3e, 0x75, 0xf4, 0x33, 0xbe, 0x0c, 0x56, 0xa1, 0x3e,
  0x09, 0xca, 0xe6, 0x3e, 0x4a, 0xcb, 0x9c, 0x3e, 0x93, 0x70, 0xb6, 0x3e,
  0x25, 0x8f, 0x9a, 0xbe, 0xfe, 0xb7, 0xa4, 0x3e, 0x75, 0xe1, 0x51, 0x3e,
  0x8c, 0x4b, 0x70, 0xbe, 0x70, 0xdb, 0x97, 0x3d, 0x3a, 0xc2, 0x1f, 0xbd,
  0x03, 0x0b, 0x55, 0xbe, 0x53, 0xba, 0xf2, 0x3e, 0x1b, 0xb5, 0x92, 0x3d,
  0x29, 0x36, 0x70, 0x3e, 0xff, 0x30, 0x3a, 0xbf, 0xf1, 0xa7, 0xed, 0x3e,
  0xf9, 0x23, 0xf7, 0xbe, 0x6a, 0x07, 0x55, 0xbd, 0xcf, 0xcf, 0xa4, 0xbf,
  0xad, 0x32, 0x54, 0xbe, 0xee, 0xc2, 0x32, 0x3e, 0xfd, 0x29, 0x0e, 0xbf,
  0xbf, 0x06, 0xe6, 0x3d, 0xc8, 0x99, 0x4d, 0xbe, 0xa9, 0xec, 0xab, 0x3e,
  0xb9, 0x9e, 0xab, 0x3e, 0x75, 0x31, 0x3a, 0x3c, 0x19, 0x1f, 0x8f, 0xbf,
  0x3f, 0xaa, 0x7d, 0x3e, 0x57, 0x3b, 0xc9, 0x3e, 0x7f, 0x8a, 0xac, 0xbd,
  0xc8, 0x87, 0x33, 0xbf, 0x49, 0x80, 0x02, 0xbe, 0x40, 0x98, 0x7e, 0xbf,
  0x18, 0x2a, 0xeb, 0x3d, 0x74, 0x47, 0x4c, 0xbf, 0x4e, 0x55, 0x01, 0xbe,
  0xdb, 0x47, 0x20, 0xbf, 0xb7, 0x4a, 0x83, 0xbf, 0x82, 0x24, 0xb6, 0xbe,
  0x76, 0xcf, 0x8a, 0x3e, 0x6a, 0x19, 0xbf, 0x3d, 0x90, 0xa3, 0x37, 0xbf,
  0xb4, 0x59, 0x1a, 0x3e, 0xe3, 0xd2, 0xa8, 0x3d, 0x6a, 0xe4, 0x81, 0x3e,
  0x75, 0x27, 0xc4, 0x3e, 0xff, 0x5f, 0xdb, 0xbd, 0x0e, 0x1f, 0x0b, 0xbf,
  0x70, 0xfa, 0xf3, 0xbe, 0xbd, 0x24, 0x1d, 0xbe, 0x93, 0x66, 0x72, 0xbf,
  0xc6, 0x13, 0x85, 0xbf, 0x7a, 0xb1, 0x68, 0xbe, 0x5d, 0x5b, 0x52, 0xbe,
  0x77, 0x4c, 0x62, 0xbf, 0xb6, 0x48, 0x9d, 0x3e, 0xfd, 0x5c, 0x33, 0x3e,
  0x10, 0xf7, 0xb1, 0x3d, 0x73, 0x68, 0x05, 0xbf, 0x39, 0xb6, 0xc5, 0x3e,
  0x9b, 0x03, 0x3f, 0x3d, 0x4c, 0xe4, 0x65, 0xbe, 0xfa, 0x55, 0x68, 0x3e,
  0xd1, 0xfc, 0x0c, 0xbd, 0x11, 0xdc, 0xc4, 0x3e, 0x6a, 0x6e, 0xfd, 0xbc,
  0x47, 0xd9, 0x2a, 0xbe, 0xe3, 0xd8, 0x1c, 0xbf, 0xab, 0x05, 0xab, 0x3e,
  0x3f, 0x48, 0xc1, 0xbd, 0x30, 0x06, 0x96, 0x3d, 0x6f, 0xbc, 0x3e, 0x3e,
  0x7c, 0xc5, 0x68, 0xbd, 0xa2, 0x7d, 0x3f, 0x3e, 0x84, 0x94, 0xcb, 0x3e,
  0xd6, 0x52, 0xc4, 0xbd, 0x2a, 0x1b, 0xc6, 0x3d, 0x2c, 0x14, 0x8c, 0xbf,
  0xda, 0x6d, 0xb5, 0xbe, 0x05, 0xcb, 0xe3, 0xbe, 0x67, 0x22, 0x93, 0x3e,
  0x9b, 0x6c, 0x51, 0xbf, 0x64, 0x5d, 0x4d, 0x3e, 0x9b, 0xdc, 0x0c, 0x3e,
  0xa2, 0xab, 0x3d, 0xbe, 0x98, 0xad, 0x8b, 0xbd, 0x49, 0x97, 0x84, 0xbe,
  0x7a, 0x38, 0x76, 0x3e, 0x53, 0x14, 0xe9, 0xbe, 0x51, 0x77, 0x60, 0x3e,
  0xc6, 0x2c, 0x04, 0xbf, 0xe2, 0x09, 0x08, 0x3e, 0x1b, 0x6f, 0x29, 0x3d,
  0x84, 0x70, 0x44, 0x3e, 0xe2, 0x38, 0x27, 0xbf, 0xff, 0x13, 0x1e, 0xbf,
  0x4c, 0xf3, 0x60, 0xbf, 0xc5, 0x66, 0x9c, 0x3c, 0xd8, 0x66, 0x25, 0xbf,
  0x72, 0x4b, 0x81, 0xbe, 0x3c, 0x85, 0x41, 0xbf, 0xdf, 0x3f, 0xd1, 0x3e,
  0x77, 0xc0, 0x1e, 0xbf, 0xfe, 0x67, 0xd0, 0x3d, 0xc1, 0x7a, 0x0a, 0xbe,
  0x6d, 0xae, 0x52, 0x3e, 0x3a, 0xf1, 0x0d, 0x3d, 0x3e, 0x27, 0x49, 0xbf,
  0x92, 0xd3, 0x5f, 0x3e, 0x35, 0x2b, 0x2a, 0x3e, 0xe6, 0xa1, 0xee, 0x3d,
  0x42, 0xb7, 0xe7, 0xbe, 0xc1, 0xc4, 0x6d, 0xbf, 0xe0, 0x16, 0x3b, 0xbe,
  0x77, 0x03, 0xf9, 0xbe, 0x7f, 0x1d, 0x5d, 0xbf, 0xed, 0xa7, 0x0e, 0xbf,
  0xc0, 0xe9, 0x20, 0x3e, 0x7c, 0x2e, 0x70, 0xbf, 0x45, 0xd6, 0xcd, 0x3d,
  0xfd, 0x32, 0x86, 0x3e, 0xb8, 0xfc, 0x84, 0xbd, 0xfd, 0xf1, 0x80, 0xbf,
  0x4a, 0xa9, 0x38, 0x3d, 0x1a, 0x68, 0x0a, 0xbe, 0x46, 0xce, 0xea, 0x3d,
  0xef, 0xc1, 0x5d, 0x3e, 0x84, 0x7d, 0xb1, 0xbe, 0xb0, 0xfc, 0x92, 0x3e,
  0xc5, 0x48, 0x49, 0xbf, 0x37, 0xf9, 0x9b, 0xbf, 0xef, 0xd6, 0x6b, 0xbf,
  0xaf, 0x38, 0x1a, 0xbe, 0xed, 0xbb, 0xb2, 0x3d, 0x68, 0xcc, 0x37, 0x3e,
  0xcc, 0x33, 0x24, 0x3e, 0x93, 0x8c, 0x3d, 0xbd, 0xa5, 0xb2, 0xa7, 0xbd,
  0x35, 0xb9, 0x8a, 0xbd, 0xa8, 0x39, 0xa4, 0x3e, 0x4f, 0xc3, 0x9a, 0x3e,
  0x80, 0x42, 0x86, 0x3c, 0x2e, 0x02, 0xe4, 0xbe, 0x5e, 0xf1, 0x43, 0x3e,
  0xfa, 0xf8, 0x24, 0x3e, 0x1d, 0x7d, 0x4e, 0xbf, 0x48, 0xb0, 0x21, 0xbe,
  0x2e, 0x32, 0x00, 0x3e, 0xde, 0x24, 0x09, 0x3e, 0xc4, 0xaf, 0x1f, 0xbd,
  0xe7, 0x86, 0x8a, 0x3d, 0xb9, 0xfa, 0x77, 0x3e, 0x9f, 0x16, 0x6e, 0xbf,
  0x71, 0x07, 0x41, 0x3e, 0x78, 0x94, 0x7b, 0xbf, 0xca, 0xa0, 0xab, 0x3d,
  0x50, 0xd1, 0x5b, 0xbd, 0x4b, 0xf5, 0x39, 0x3e, 0xc9, 0xc0, 0x1e, 0x3f,
  0xfb, 0xe2, 0x30, 0x3f, 0x0c, 0xa6, 0xa4, 0xbd, 0xe4, 0xe5, 0xf5, 0xbc,
  0xa6, 0x3d, 0x4e, 0xbf, 0x06, 0xef, 0x42, 0xbf, 0xfd, 0x5a, 0x22, 0xbe,
  0x00, 0x52, 0xd3, 0xbb, 0x47, 0x2a, 0xe5, 0xbc, 0xdd, 0xae, 0xd8, 0xbc,
  0x79, 0xa3, 0x24, 0xbe, 0x4a, 0xfd, 0x43, 0x3c, 0x75, 0x38, 0x34, 0x3e,
  0x7b, 0xdf, 0x11, 0x3d, 0xe5, 0xff, 0x82, 0x3c, 0x23, 0xa4, 0x92, 0xba,
  0xf6, 0xb1, 0x0e, 0x3e, 0x76, 0xe4, 0x0a, 0x3d, 0xdc, 0x4b, 0x59, 0xbd,
  0x5d, 0xd4, 0x59, 0xbc, 0xbf, 0x0c, 0xfb, 0x3c, 0xb0, 0x82, 0xd4, 0xbd,
  0x10, 0x28, 0x62, 0xbd, 0x1c, 0x01, 0x1f, 0xbe, 0x1d, 0x40, 0x01, 0x3c,
  0xdc, 0x03, 0xaf, 0xbc, 0xb9, 0xc3, 0xac, 0x3d, 0x44, 0x2e, 0x71, 0xbe,
  0xb2, 0x86, 0x00, 0xbe, 0xa4, 0x23, 0xec, 0xbd, 0x82, 0x72, 0x47, 0xbe,
  0x6c, 0xe0, 0x02, 0xbe, 0x48, 0x4e, 0xe4, 0xbc, 0xd5, 0x70, 0x63, 0xbe,
  0x29, 0xa9, 0x16, 0xbd, 0x10, 0x92, 0x39, 0xbe, 0xdb, 0xd8, 0xf2, 0xbd,
  0x54, 0xb6, 0xd0, 0x3d, 0x61, 0xcb, 0x76, 0xbe, 0x41, 0x73, 0x46, 0xbd,
  0x78, 0x55, 0xc3, 0x3d, 0x56, 0x62, 0x4a, 0x3e, 0x7d, 0x85, 0x00, 0xbe,
  0xe8, 0x0b, 0xfd, 0x3b, 0xe1, 0x88, 0x31, 0x3d, 0x14, 0x78, 0xa3, 0x3b,
  0x1c, 0xf4, 0x66, 0xbc, 0xc9, 0x4b, 0x5f, 0xbd, 0xa5, 0xcd, 0x3b, 0xbe,
  0x31, 0xdc, 0x29, 0xbe, 0xea, 0x26, 0x49, 0xbd, 0x54, 0x2b, 0x77, 0xbe,
  0xd7, 0xa7, 0x33, 0xbe, 0xe5, 0x91, 0xc0, 0x3d, 0xbe, 0x76, 0x3f, 0xbe,
  0x06, 0xcf, 0xa5, 0xbc, 0x7c, 0xb4, 0x33, 0xbe, 0x96, 0x3b, 0xa8, 0x3d,
  0x10, 0x3a, 0xde, 0x3d, 0x15, 0xf1, 0x8d, 0x3c, 0x37, 0x6c, 0xa5, 0x3d,
  0xe0, 0x9e, 0x13, 0x3e, 0xd6, 0xe7, 0xc2, 0x3d, 0xbc, 0xc9, 0x3f, 0xbe,
  0x14, 0x05, 0x9a, 0x3b, 0xab, 0xd3, 0xec, 0xbd, 0x1c, 0x91, 0x6a, 0xbe,
  0xbc, 0x14, 0x21, 0x3e, 0x0c, 0x27, 0x7d, 0xbe, 0x80, 0xcb, 0x25, 0x3e,
  0x06, 0xa8, 0x6c, 0xbe, 0xb6, 0x25, 0xd0, 0xbd, 0x65, 0x02, 0x27, 0x3f,
  0x6e, 0xa9, 0xa1, 0xbd, 0x70, 0xc4, 0x28, 0x3e, 0x6a, 0xb1, 0x92, 0x3d,
  0xe5, 0x3d, 0x0d, 0xbe, 0xb5, 0x2d, 0x73, 0x3f, 0x9b, 0x3b, 0x1c, 0x3e,
  0x62, 0x4c, 0x5f, 0x3e, 0x43, 0xac, 0xbd, 0xbe, 0xa1, 0x40, 0x09, 0x3f,
  0x5d, 0x6e, 0x61, 0x3e, 0x53, 0x5d, 0xcd, 0xbe, 0x53, 0x68, 0x24, 0xbf,
  0x21, 0x6d, 0x00, 0x3f, 0xef, 0x2a, 0xdb, 0x3e, 0xa5, 0xfa, 0x5a, 0xbe,
  0xbd, 0x82, 0x8f, 0xbe, 0x6f, 0xdc, 0xf4, 0x3e, 0xa1, 0xe3, 0x83, 0xbe,
  0x50, 0x13, 0x2f, 0x3e, 0x97, 0x31, 0x5c, 0x3f, 0x95, 0x25, 0x9f, 0x3e,
  0x3c, 0x77, 0x89, 0x3e, 0x2b, 0x14, 0x0d, 0xbe, 0x47, 0x79, 0x6e, 0xbe,
  0x97, 0x3d, 0x8f, 0x3e, 0x43, 0x8d, 0x1e, 0x3e, 0x36, 0x2f, 0x09, 0x3f,
  0x09, 0xe2, 0x6e, 0x3f, 0xe7, 0xc2, 0xee, 0x3e, 0xee, 0x91, 0xd5, 0x3d,
  0xa1, 0xc4, 0x7b, 0xbe, 0x10, 0x89, 0x74, 0xbe, 0xe8, 0xcd, 0x58, 0x3e,
  0x35, 0x20, 0x49, 0x3e, 0xe3, 0x09, 0x28, 0x3e, 0x78, 0xcd, 0x75, 0x3e,
  0xc4, 0x8a, 0xcf, 0xbe, 0x8c, 0x99, 0x62, 0x3e, 0x50, 0xfd, 0x24, 0xbe,
  0x49, 0xf0, 0x67, 0x3f, 0xd8, 0xa0, 0xa5, 0xbd, 0x65, 0x88, 0x88, 0x3e,
  0x67, 0xfa, 0xf0, 0xbe, 0x91, 0xa3, 0xe7, 0x3d, 0x44, 0xbc, 0x78, 0x3e,
  0x9e, 0x6c, 0x8f, 0xbe, 0x2a, 0x9a, 0xb1, 0x3d, 0x9d, 0xc9, 0x2e, 0x3e,
  0xb6, 0x1e, 0x8a, 0xbe, 0x37, 0x7e, 0xea, 0x3e, 0xc6, 0x20, 0x88, 0x3e,
  0xd5, 0x90, 0x75, 0xba, 0x61, 0x57, 0xfa, 0xbd, 0xa5, 0x96, 0xdc, 0xbd,
  0xb7, 0x27, 0xf5, 0xbb, 0xb4, 0x48, 0x61, 0xbf, 0x7b, 0xce, 0x2b, 0xbf,
  0x29, 0xcf, 0xff, 0xbe, 0xb6, 0xd9, 0x19, 0xbe, 0x1c, 0x0c, 0x0b, 0xbf,
  0xac, 0x41, 0xe7, 0x3e, 0xd7, 0xc3, 0x75, 0xbe, 0x84, 0x29, 0xa3, 0xbd,
  0x2c, 0xb6, 0x13, 0x3e, 0xc6, 0x5f, 0x7a, 0x3d, 0xae, 0x77, 0x14, 0xbe,
  0xa8, 0xb2, 0x78, 0x3e, 0x8c, 0x4a, 0x38, 0x3d, 0x2a, 0x56, 0x99, 0x3b,
  0x46, 0x2e, 0x5c, 0xbe, 0x44, 0x25, 0x00, 0x3e, 0x0d, 0x06, 0x49, 0xbe,
  0xd6, 0xa4, 0xd7, 0xbd, 0xed, 0x74, 0x0b, 0x3b, 0xfe, 0x1b, 0x1f, 0x3e,
  0xa0, 0xc5, 0xf7, 0x3a, 0xfa, 0x0d, 0x2a, 0x3e, 0xa5, 0xa2, 0x86, 0xbc,
  0x7e, 0x34, 0xdf, 0xbd, 0x9d, 0xd8, 0x29, 0xbe, 0x46, 0x4f, 0x25, 0x3d,
  0x5f, 0xd1, 0x2c, 0x3e, 0xf4, 0x32, 0x02, 0xbe, 0xb9, 0x7f, 0x31, 0x3e,
  0x90, 0x8a, 0xbe, 0x3d, 0x8d, 0x8f, 0x15, 0xbe, 0x58, 0x72, 0x95, 0xbd,
  0xa0, 0x3c, 0x42, 0x3e, 0x53, 0xcb, 0xd8, 0x3c, 0x4f, 0x27, 0x23, 0xbe,
  0xe3, 0x69, 0xde, 0xbd, 0xa0, 0xc5, 0xa8, 0x3b, 0x94, 0x06, 0x40, 0x3d,
  0xc0, 0x73, 0x39, 0x3e, 0xa1, 0x69, 0xe6, 0xbd, 0xe4, 0x91, 0x0e, 0xbe,
  0x61, 0x1b, 0x74, 0xbe, 0xfd, 0x99, 0xbf, 0x3d, 0xf5, 0x94, 0x59, 0xbd,
  0xb6, 0x80, 0x55, 0xbe, 0xfa, 0xac, 0x38, 0xbe, 0x75, 0xfc, 0x39, 0x3e,
  0x17, 0x4f, 0x0c, 0x3d, 0xa2, 0xbf, 0x2e, 0xbd, 0x17, 0x5a, 0x17, 0x3e,
  0xf2, 0xee, 0x7d, 0xbe, 0x4c, 0xb5, 0xa5, 0x3d, 0x66, 0x3e, 0x71, 0xbe,
  0x2b, 0x13, 0x1d, 0xbd, 0xde, 0x21, 0xe2, 0xbd, 0xa7, 0x4e, 0x08, 0xbe,
  0xe4, 0xa1, 0x35, 0x3e, 0xe2, 0xa7, 0x23, 0x3e, 0x64, 0xaf, 0xf6, 0x3d,
  0x61, 0x6d, 0x8d, 0xbe, 0x00, 0xac, 0x9f, 0x3b, 0xc8, 0x09, 0x59, 0xbe,
  0x1a, 0x52, 0x9a, 0x3d, 0xe4, 0x29, 0x7f, 0x3d, 0x49, 0x29, 0x2c, 0xbe,
  0xb8, 0x74, 0x23, 0x3e, 0xba, 0xa1, 0x32, 0x3e, 0x97, 0x10, 0x87, 0xbe,
  0xd9, 0xd3, 0xe5, 0x3d, 0xac, 0x8a, 0x64, 0xbe, 0xa0, 0x77, 0x50, 0xbd,
  0x04, 0xe6, 0x50, 0xbe, 0xe6, 0xfb, 0xb8, 0x3d, 0x9b, 0xcf, 0xe1, 0xbd,
  0x3f, 0xd1, 0x07, 0xbe, 0x14, 0x91, 0x9f, 0xbc, 0xdb, 0x40, 0x11, 0x3e,
  0x11, 0xc6, 0x6c, 0x39, 0x4e, 0xee, 0x20, 0xbe, 0xf3, 0x3f, 0xb3, 0x3d,
  0xea, 0xd8, 0x97, 0xbd, 0x89, 0x5a, 0x7c, 0xbe, 0x5a, 0x17, 0x00, 0x3e,
  0x84, 0x2b, 0xc3, 0x3d, 0x2c, 0x16, 0xc8, 0xbd, 0x58, 0x70, 0xf1, 0xbd,
  0xa0, 0x61, 0xb4, 0xbd, 0xfe, 0x9e, 0xf7, 0xbc, 0x28, 0xf1, 0x2d, 0x3e,
  0xb5, 0x72, 0xbe, 0x3d, 0xfc, 0x58, 0x11, 0x3e, 0x48, 0x53, 0xaf, 0xbd,
  0x3c, 0xf1, 0x70, 0xbe, 0x9c, 0x94, 0x97, 0xbd, 0x8d, 0x7e, 0x3d, 0x3d,
  0xf8, 0xaf, 0xbb, 0x3d, 0x79, 0xb5, 0x2a, 0xbe, 0x5c, 0xd7, 0x89, 0xbd,
  0x3d, 0x07, 0xde, 0xbd, 0x44, 0x33, 0x09, 0x3e, 0x80, 0x9c, 0x74, 0xbe,
  0x67, 0xb5, 0x37, 0x3d, 0x28, 0x42, 0x59, 0x3d, 0x2e, 0x18, 0x3a, 0x3e,
  0x98, 0xf9, 0x12, 0x3e, 0x11, 0xbb, 0x3f, 0x3e, 0x6a, 0x23, 0x8b, 0xbd,
  0x27, 0xf1, 0xfd, 0xbc, 0x66, 0x2c, 0x23, 0xbd, 0xb6, 0x4a, 0x0f, 0x3d,
  0x35, 0xf6, 0xed, 0x3c, 0x9d, 0xa6, 0x83, 0xbe, 0xac, 0x29, 0x20, 0xbe,
  0x67, 0x75, 0x38, 0x3e, 0xb1, 0xb1, 0x41, 0x3e, 0x90, 0xe4, 0x60, 0xbd,
  0xd7, 0xad, 0xdc, 0x3d, 0xf3, 0xdb, 0xc1, 0xbd, 0xd5, 0x28, 0x95, 0xbd,
  0xc3, 0xc2, 0x55, 0xbe, 0x95, 0xc3, 0x79, 0xbd, 0x0e, 0x1f, 0xe1, 0xbc,
  0x19, 0x69, 0xa9, 0xbd, 0xa0, 0x33, 0xc4, 0xbd, 0x3b, 0xc4, 0x10, 0xbe,
  0x8c, 0x31, 0x39, 0xbe, 0xf6, 0x3b, 0x05, 0x3e, 0x89, 0xec, 0x42, 0xbe,
  0x49, 0xd2, 0x58, 0xbe, 0x83, 0xb2, 0x9a, 0xbc, 0x51, 0xca, 0x99, 0xbc,
  0x79, 0xe3, 0x5a, 0xbe, 0x99, 0x7f, 0x4f, 0xbe, 0xfd, 0xb3, 0x16, 0x3e,
  0x47, 0xe5, 0x20, 0x3e, 0xb4, 0x3c, 0x5a, 0xbe, 0x94, 0x29, 0x68, 0xbe,
  0xca, 0x82, 0x2e, 0x3e, 0x91, 0x50, 0x19, 0x3e, 0xc1, 0xbb, 0x22, 0xbe,
  0xe5, 0x99, 0xfc, 0x3c, 0x2f, 0xc5, 0x40, 0xbe, 0x17, 0x51, 0x37, 0xbe,
  0xeb, 0xc9, 0xef, 0x3d, 0x47, 0x54, 0x76, 0x3e, 0x80, 0x13, 0xed, 0xbd,
  0x8b, 0xcb, 0x32, 0x3d, 0x5c, 0x6f, 0x19, 0xbe, 0x52, 0x9d, 0xa6, 0x3d,
  0x80, 0x8a, 0x6b, 0xbe, 0xb8, 0x51, 0x66, 0xbe, 0x53, 0xb6, 0x6d, 0xbe,
  0xa6, 0x73, 0x58, 0xba, 0x66, 0xc6, 0x5c, 0xbe, 0xe0, 0xc5, 0xa9, 0x3d,
  0x5c, 0xe3, 0x20, 0xbe, 0xac, 0xe5, 0x4b, 0xbe, 0x80, 0xf2, 0x3f, 0xbe,
  0x38, 0xc6, 0x7f, 0x3e, 0x28, 0x4a, 0x51, 0xbe, 0xaf, 0x65, 0x5e, 0xbe,
  0xbd, 0x7e, 0x54, 0x3e, 0x12, 0xff, 0xb9, 0xbd, 0xb6, 0xcd, 0x12, 0xbc,
  0x81, 0xc7, 0x43, 0x3e, 0x29, 0xf9, 0x6b, 0xbd, 0x34, 0x2c, 0xef, 0xbc,
  0x90, 0xce, 0x47, 0x3e, 0xd0, 0x80, 0x73, 0xbe, 0xeb, 0xfa, 0x98, 0x3c,
  0x44, 0x61, 0x3a, 0x3e, 0xe0, 0x83, 0xbb, 0x3d, 0x26, 0xfc, 0x35, 0x3e,
  0x46, 0xef, 0xec, 0xbc, 0xbc, 0x9a, 0x4a, 0xbe, 0xfe, 0x4c, 0x1e, 0xbe,
  0xe8, 0x68, 0x98, 0x3d, 0x54, 0xf1, 0x6a, 0xbe, 0x54, 0x78, 0x68, 0xbe,
  0x1e, 0xa6, 0x60, 0x3d, 0x00, 0x48, 0x96, 0x3b, 0xa4, 0xa4, 0x15, 0xbe,
  0xd8, 0x0d, 0xb1, 0x3d, 0x9b, 0x08, 0x2c, 0xbd, 0xf6, 0x6e, 0xe1, 0xbd,
  0x67, 0x2e, 0x71, 0xbe, 0x29, 0xbf, 0x9b, 0x3d, 0xb1, 0x78, 0x50, 0xbe,
  0x1e, 0x9b, 0xf7, 0xbd, 0x8a, 0xff, 0xe1, 0x3c, 0xd4, 0x70, 0x79, 0xbe,
  0x3e, 0xd3, 0xdd, 0x3c, 0xf0, 0x42, 0x16, 0xbd, 0x20, 0x1f, 0xd3, 0x3d,
  0x30, 0x7f, 0x65, 0xbd, 0xe0, 0x5d, 0x64, 0x3e, 0xa0, 0xee, 0xd2, 0x3c,
  0x41, 0x5f, 0x17, 0xbe, 0x83, 0xa0, 0x57, 0x3f, 0x27, 0x83, 0xf0, 0x3e,
  0xa2, 0x97, 0x99, 0x3e, 0xa0, 0xd4, 0x4b, 0xbe, 0xca, 0x07, 0x7f, 0x3e,
  0xe5, 0x43, 0xab, 0x3e, 0x56, 0x35, 0x2d, 0x3e, 0x9b, 0xdc, 0x10, 0x3f,
  0xdb, 0x5b, 0xaa, 0x3d, 0x85, 0x79, 0xb2, 0xbd, 0xc3, 0xed, 0x59, 0xbd,
  0x86, 0x5b, 0x29, 0x3f, 0xda, 0xfd, 0xb3, 0x3f, 0x09, 0x1c, 0x82, 0x3e,
  0x28, 0x7c, 0x82, 0x3f, 0xb8, 0x97, 0x8b, 0x3f, 0x70, 0xb0, 0x91, 0x3f,
  0x3b, 0xfa, 0x64, 0xbd, 0x2b, 0xed, 0xac, 0x3f, 0x4e, 0xa0, 0xba, 0xbc,
  0xe1, 0x34, 0x41, 0x3e, 0x90, 0xf7, 0xa3, 0x3d, 0x2b, 0xa4, 0x9d, 0x3f,
  0x73, 0x32, 0xf1, 0xbd, 0x2a, 0xaa, 0x6c, 0xbe, 0x5c, 0x5e, 0x34, 0x3e,
  0xe8, 0x16, 0x0d, 0x3d, 0xae, 0x0a, 0x1e, 0xbe, 0x07, 0xfe, 0xc9, 0xbe,
  0xba, 0x05, 0x42, 0x3f, 0x9a, 0x77, 0xc2, 0x3f, 0xa2, 0x9e, 0x5e, 0x3f,
  0x40, 0xec, 0x98, 0x3a, 0xe8, 0x83, 0x65, 0x3e, 0x78, 0xcd, 0x68, 0xbe,
  0x0a, 0x36, 0x3c, 0xbe, 0xb6, 0xba, 0x11, 0x3e, 0x13, 0x01, 0xe3, 0x3d,
  0xee, 0x0f, 0x2d, 0x3d, 0x1e, 0x79, 0x00, 0xbe, 0xb7, 0x56, 0x73, 0xbe,
  0x8a, 0xa4, 0x7f, 0x3f, 0xfe, 0xd5, 0x1d, 0x3f, 0xfc, 0x65, 0x7c, 0x3d,
  0x9e, 0xba, 0xa2, 0xbb, 0x0b, 0xc9, 0x9c, 0x3f, 0xc1, 0xca, 0x7d, 0xbd,
  0x49, 0x4f, 0x2c, 0x3e, 0x82, 0xdc, 0x0e, 0x3c, 0x55, 0x6f, 0x75, 0x3e,
  0x75, 0xb7, 0x4c, 0xbc, 0xb2, 0x49, 0x7c, 0x3d, 0x03, 0x51, 0xb7, 0x3f,
  0x9b, 0x1b, 0x0d, 0xbd, 0x89, 0xec, 0x8b, 0x3f, 0x1b, 0xe7, 0x81, 0xbe,
  0xeb, 0xc3, 0xd4, 0xbc, 0x0f, 0x67, 0xca, 0x3c, 0xf8, 0xc2, 0xbf, 0x3e,
  0x0a, 0xe0, 0xd2, 0xbd, 0xef, 0x45, 0x2b, 0x3f, 0x37, 0xe7, 0x31, 0x3e,
  0x04, 0x02, 0x67, 0x3f, 0x3e, 0x68, 0x9a, 0x3f, 0x44, 0x51, 0x9c, 0x3e,
  0xf6, 0xf7, 0x72, 0x3f, 0xb5, 0xd5, 0xc4, 0x3e, 0x21, 0x23, 0xac, 0xbe,
  0x34, 0x5a, 0xdc, 0x3c, 0x9f, 0x5f, 0x42, 0x3f, 0xf0, 0xb7, 0x17, 0xbd,
  0xa6, 0x67, 0x5e, 0xbe, 0x67, 0xb2, 0x5d, 0xbd, 0x2a, 0x67, 0x8a, 0x3a,
  0x5f, 0x55, 0x41, 0x3e, 0x7e, 0x6d, 0x0d, 0x3f, 0x2c, 0x02, 0x54, 0x3e,
  0x02, 0x39, 0x98, 0xbe, 0xdd, 0x8f, 0x66, 0x3f, 0xdd, 0xac, 0x4c, 0x3f,
  0xcb, 0x06, 0x52, 0x3f, 0xdb, 0x7b, 0xbf, 0x3e, 0x8c, 0x0a, 0x57, 0x3f,
  0x60, 0xa8, 0x84, 0x3e, 0x90, 0x43, 0x58, 0x3e, 0xd0, 0x2d, 0x97, 0xbd,
  0x6e, 0x1a, 0x5d, 0xbc, 0x7d, 0xcf, 0xc8, 0xbe, 0x2d, 0xaf, 0xf6, 0xbc,
  0x90, 0xeb, 0x0e, 0xbd, 0xb7, 0xce, 0x47, 0x3e, 0x79, 0x46, 0x9a, 0x3e,
  0xd7, 0x2f, 0x86, 0xbe, 0x01, 0xcc, 0x0a, 0x3f, 0xf8, 0xd2, 0xae, 0x3e,
  0xe3, 0xc8, 0x11, 0x3e, 0x71, 0x74, 0xa4, 0xbd, 0xa5, 0x39, 0xcb, 0x3e,
  0x80, 0x8c, 0xde, 0xbc, 0x10, 0x9e, 0x55, 0x3e, 0x9c, 0xd6, 0x98, 0xbd,
  0x78, 0xb0, 0x4f, 0x3e, 0xac, 0x83, 0x09, 0xbe, 0x3a, 0x61, 0x50, 0x3e,
  0xb4, 0x3c, 0x65, 0x3c, 0xc7, 0xfa, 0x5c, 0x3f, 0xa1, 0x55, 0xf5, 0x3e,
  0xe4, 0x17, 0x8e, 0x3e, 0x5c, 0xff, 0xc8, 0xbd, 0xbe, 0x45, 0x52, 0x3f,
  0xf2, 0x58, 0x1a, 0x3d, 0xc6, 0x85, 0xc4, 0xbd, 0x1b, 0x6f, 0xf5, 0x3e,
  0x77, 0x0b, 0x67, 0x3d, 0x69, 0xb9, 0xbc, 0x3d, 0xbd, 0x69, 0x00, 0xbe,
  0x36, 0xd0, 0x05, 0x3f, 0x8b, 0x6e, 0xdc, 0xbd, 0x5c, 0xa6, 0x6d, 0x3e,
  0xe2, 0x5e, 0xc9, 0xbd, 0x24, 0xaf, 0x90, 0xbe, 0x89, 0x73, 0x5b, 0x3d,
  0x60, 0x23, 0x6b, 0x3f, 0x72, 0x3f, 0x7f, 0x3f, 0xdf, 0x25, 0x8b, 0x3f,
  0x90, 0x8e, 0x05, 0xbe, 0xbc, 0x02, 0x8f, 0x3e, 0x18, 0xf0, 0x2f, 0x3f,
  0xe8, 0x55, 0x6b, 0xbe, 0x30, 0x8c, 0xa7, 0xbd, 0x58, 0x6b, 0x01, 0xbe,
  0xe4, 0xff, 0x6f, 0x3e, 0x50, 0x8e, 0x77, 0xbd, 0xf4, 0x1c, 0x3a, 0xbe,
  0x58, 0xc8, 0xbe, 0xbd, 0xa0, 0x94, 0x66, 0xbd, 0xd0, 0xc0, 0xc6, 0xbd,
  0x50, 0xb4, 0x57, 0xbd, 0x80, 0x57, 0x3b, 0xbc, 0x1c, 0x57, 0x48, 0xbe,
  0x30, 0xa6, 0xc2, 0x3d, 0x80, 0x08, 0x04, 0x3c, 0xe0, 0x45, 0x32, 0x3d,
  0xa8, 0x4f, 0xb3, 0xbd, 0xb0, 0xfb, 0xd0, 0x3d, 0xc8, 0x2e, 0xf9, 0xbd,
  0x80, 0xbd, 0xce, 0x3b, 0x90, 0x5f, 0x72, 0xbe, 0x28, 0x72, 0xe5, 0xbd,
  0x60, 0x11, 0x35, 0xbe, 0x08, 0x1a, 0xf2, 0xbd, 0x34, 0x35, 0x4a, 0xbe,
  0xf0, 0x42, 0xe8, 0x3d, 0x00, 0xa3, 0x09, 0xbd, 0xb8, 0x31, 0x5d, 0xbe,
  0x20, 0xa5, 0xbe, 0xbc, 0x2c, 0x6c, 0x45, 0xbe, 0xa4, 0x29, 0x19, 0x3e,
  0xf8, 0x19, 0xef, 0x3d, 0xec, 0xdf, 0x1a, 0xbe, 0x00, 0x1b, 0x3e, 0x3b,
  0x20, 0xf0, 0xd5, 0x3c, 0x38, 0x8b, 0x89, 0x3d, 0xd0, 0x7e, 0x10, 0xbd,
  0x90, 0xe3, 0xc6, 0xbd, 0x00, 0xc6, 0x93, 0xbc, 0xa8, 0x6d, 0x11, 0x3e,
  0xe8, 0x32, 0xa2, 0xbd, 0x20, 0xaa, 0xe7, 0x3c, 0x60, 0xda, 0x03, 0xbd,
  0xe0, 0x00, 0x3c, 0x3d, 0x70, 0xd8, 0xbc, 0x3d, 0x58, 0x72, 0x45, 0xbe,
  0x04, 0x1b, 0x6b, 0xbe, 0xd8, 0x45, 0x96, 0x3d, 0x00, 0xa7, 0xca, 0xbd,
  0xf8, 0x7c, 0x4e, 0x3e, 0x30, 0xda, 0x62, 0xbe, 0x04, 0xb2, 0x44, 0xbe,
  0xa8, 0xf5, 0x57, 0xbe, 0xb0, 0x74, 0x21, 0x3d, 0xec, 0x24, 0x30, 0xbe,
  0x84, 0x38, 0x28, 0x3e, 0x80, 0x0b, 0x46, 0xbe, 0xcc, 0xed, 0x0d, 0xbe,
  0x88, 0x8c, 0xd4, 0xbd, 0xe4, 0x29, 0x14, 0xbe, 0x78, 0x85, 0x10, 0x3e,
  0xc0, 0xa3, 0x93, 0x3d, 0x50, 0xb5, 0x22, 0x3d, 0x80, 0x82, 0x02, 0xbc,
  0x74, 0xb6, 0x57, 0xbe, 0xb6, 0xb3, 0x06, 0x3f, 0x99, 0x8a, 0xbc, 0xbe,
  0x28, 0x65, 0x91, 0xbf, 0xd6, 0x64, 0x7d, 0xbc, 0x4b, 0xee, 0x18, 0xbe,
  0x90, 0xe2, 0xa3, 0xbe, 0x43, 0x43, 0xde, 0x3e, 0x4e, 0xeb, 0x8e, 0xbf,
  0x6d, 0xfe, 0x38, 0x3e, 0x86, 0x93, 0x53, 0x3e, 0x6d, 0xe9, 0x5f, 0x3d,
  0xba, 0x84, 0x1b, 0xbf, 0x56, 0x5d, 0x6a, 0xbe, 0xb9, 0x28, 0x98, 0x3f,
  0x93, 0x7c, 0x0e, 0x3f, 0x22, 0xfe, 0x0b, 0xbf, 0x91, 0xee, 0x01, 0xbf,
  0x5c, 0x19, 0xaf, 0x3e, 0xc8, 0xb3, 0x24, 0x3f, 0x38, 0xda, 0x9e, 0xbe,
  0xdb, 0x40, 0xd1, 0x3e, 0x00, 0x57, 0x31, 0x3c, 0xae, 0x30, 0x1d, 0xbf,
  0xf2, 0x8c, 0x96, 0xbd, 0x32, 0xea, 0x3e, 0x3e, 0x87, 0x0a, 0x62, 0x3d,
  0x18, 0x98, 0xbc, 0x3e, 0xe8, 0x4e, 0xd4, 0xbe, 0x09, 0x86, 0x0e, 0xbc,
  0x15, 0x23, 0x73, 0xbf, 0x6c, 0x95, 0x81, 0xbf, 0xbe, 0x75, 0x4b, 0xbf,
  0x66, 0xce, 0x08, 0x3e, 0x07, 0x18, 0xff, 0xbd, 0x60, 0x02, 0xb2, 0x3c,
  0x63, 0x8c, 0x13, 0xbe, 0xc1, 0x9f, 0x83, 0x3e, 0x49, 0xea, 0xff, 0x3d,
  0x60, 0x31, 0x00, 0xbd, 0xa8, 0xc8, 0x69, 0x3e, 0x35, 0x1d, 0xe4, 0xbd,
  0xf7, 0x4f, 0xae, 0x3c, 0x00, 0xa0, 0x59, 0xbf, 0xef, 0x72, 0xcd, 0x3e,
  0x7d, 0xe8, 0x28, 0x3e, 0x41, 0xb0, 0xd0, 0x3e, 0xb3, 0x88, 0x75, 0x3d,
  0x46, 0xba, 0x4f, 0x3d, 0x6d, 0x0f, 0x9c, 0x3e, 0x7e, 0x8f, 0x26, 0x3e,
  0x90, 0x39, 0xa5, 0x3e, 0x0f, 0xbf, 0xe5, 0xbc, 0xb7, 0x4e, 0x85, 0xbf,
  0x64, 0x29, 0x82, 0xbd, 0x4e, 0xce, 0x81, 0x3e, 0xdb, 0xbd, 0xfb, 0x3c,
  0xde, 0xbd, 0xe4, 0xbd, 0x01, 0xfd, 0x9b, 0x3e, 0x21, 0x43, 0xa7, 0x3e,
  0x1e, 0x66, 0xe9, 0xbe, 0x17, 0x7a, 0x1a, 0xbe, 0xc9, 0xcc, 0xe9, 0x3d,
  0xbc, 0x52, 0xa8, 0x3e, 0xf6, 0x3d, 0x2e, 0xbf, 0xa4, 0xcf, 0x41, 0xbe,
  0x34, 0x92, 0x30, 0xbe, 0xf8, 0x38, 0xdd, 0x3d, 0x51, 0xea, 0xbc, 0xbc,
  0xd2, 0x7c, 0x38, 0xbd, 0x46, 0xd8, 0x8a, 0xbd, 0x3c, 0xf7, 0x72, 0x3d,
  0x46, 0x66, 0x41, 0x3e, 0x90, 0x50, 0x47, 0xbe, 0x5b, 0xf3, 0x53, 0xbe,
  0x32, 0xfd, 0x0d, 0xbe, 0x64, 0x5a, 0x3f, 0xbe, 0x0a, 0xb1, 0x6d, 0x3e,
  0xd4, 0x9f, 0x57, 0xbe, 0xa0, 0x5f, 0xe9, 0xbc, 0x30, 0xc8, 0x6c, 0x3e,
  0x15, 0xe8, 0x86, 0x3d, 0x82, 0xd4, 0x4b, 0xbe, 0xb1, 0x7d, 0x02, 0x3e,
  0x85, 0x10, 0x81, 0xbe, 0xcf, 0xa2, 0x25, 0x3d, 0xd8, 0x7c, 0x1b, 0xbe,
  0x90, 0x41, 0xd4, 0xbd, 0x06, 0xb5, 0x2f, 0xbe, 0xbf, 0x35, 0x6f, 0xbd,
  0x40, 0xc3, 0x53, 0x3c, 0xab, 0xc0, 0xa2, 0x3c, 0xf0, 0x9a, 0x4c, 0x3e,
  0x60, 0x9d, 0x82, 0x3d, 0x15, 0x3a, 0xbc, 0x3d, 0xc4, 0x4f, 0x00, 0xbe,
  0x58, 0x1d, 0xea, 0x3d, 0x7e, 0x63, 0xd7, 0x3d, 0xc6, 0x90, 0x3a, 0x3e,
  0x00, 0x5a, 0x48, 0x3e, 0xc5, 0x8e, 0x6b, 0x3e, 0x88, 0x2a, 0x5b, 0x3c,
  0xf0, 0x0f, 0xef, 0xbd, 0xdd, 0xd2, 0x2f, 0xbd, 0xe4, 0x4a, 0x4f, 0x3d,
  0x93, 0x8d, 0x40, 0xbe, 0x6d, 0xc8, 0xdb, 0x3d, 0x9f, 0x9a, 0x7d, 0x3d,
  0xcb, 0xa8, 0x5a, 0xbe, 0x1c, 0x92, 0x8a, 0x3d, 0x40, 0xf9, 0xc2, 0xbc,
  0x74, 0x42, 0x07, 0x3d, 0xc8, 0x5a, 0xba, 0xbd, 0x96, 0x08, 0xf6, 0x3d,
  0xaf, 0xeb, 0x9a, 0xbd, 0x47, 0xa8, 0x63, 0x3e, 0x4a, 0x57, 0x28, 0xbe,
  0xa8, 0xf5, 0x7b, 0xbe, 0x93, 0xfa, 0xce, 0xbd, 0x52, 0xd8, 0x4b, 0xbc,
  0xd8, 0xc0, 0x4f, 0xbe, 0xdc, 0x65, 0x66, 0xbe, 0xd6, 0x3f, 0xeb, 0x3d,
  0x38, 0x9b, 0x11, 0x3e, 0x89, 0xc9, 0x61, 0xbe, 0xb5, 0xef, 0x0b, 0x3e,
  0xfa, 0x12, 0x16, 0x3e, 0x66, 0x22, 0x41, 0x3c, 0xc0, 0x1a, 0x0f, 0xbe,
  0x90, 0xe7, 0x07, 0x3f, 0x77, 0x56, 0xab, 0xbf, 0xed, 0x95, 0x89, 0xbf,
  0xbe, 0x89, 0x79, 0xbd, 0x5f, 0xca, 0xb5, 0x3d, 0xfa, 0xd0, 0x4e, 0xbf,
  0x27, 0xd1, 0x34, 0x3d, 0x58, 0xcd, 0x18, 0xbf, 0x3e, 0x6c, 0xb0, 0x3e,
  0xe2, 0x59, 0x02, 0x3e, 0x96, 0xb4, 0xc8, 0x3e, 0x0a, 0xbc, 0x4b, 0xbf,
  0x9f, 0xf6, 0xa2, 0xbe, 0x01, 0x92, 0xb1, 0x3f, 0x4d, 0x6c, 0x34, 0xbe,
  0xaa, 0x58, 0x63, 0xbf, 0x14, 0x04, 0x30, 0xbf, 0x03, 0x07, 0x70, 0xbd,
  0x18, 0xf6, 0x83, 0xbd, 0x67, 0xea, 0x96, 0xbe, 0x91, 0xc7, 0x0a, 0x3e,
  0xf0, 0x84, 0x0a, 0xbe, 0x37, 0x2e, 0xda, 0xbc, 0x77, 0x0e, 0x28, 0xbc,
  0xba, 0xed, 0x27, 0xbe, 0xcf, 0x1c, 0x6b, 0x3e, 0xc7, 0xe9, 0xba, 0x3e,
  0xbe, 0x36, 0x99, 0xbe, 0x43, 0x6a, 0xb8, 0xbd, 0x95, 0x45, 0x28, 0xbf,
  0x20, 0xcb, 0x1d, 0xbe, 0xb5, 0xcc, 0x41, 0xbf, 0x00, 0xe0, 0x8a, 0x3c,
  0xb4, 0x9d, 0xb0, 0x3e, 0x8c, 0x3a, 0x35, 0xbe, 0x5e, 0x8c, 0x68, 0xbe,
  0xa4, 0x34, 0xd4, 0xbd, 0x08, 0x93, 0x0d, 0xbe, 0x52, 0x86, 0x6e, 0xbb,
  0x95, 0xfb, 0x33, 0x3e, 0x59, 0xb7, 0xea, 0xbd, 0x6c, 0xcd, 0x44, 0xbf,
  0xd6, 0xc2, 0x40, 0xbf, 0xff, 0x5c, 0x15, 0x3e, 0x6e, 0xc6, 0x36, 0xbe,
  0xd9, 0x5b, 0x09, 0xbe, 0x4f, 0x14, 0xe6, 0xbd, 0xc5, 0xeb, 0x1e, 0xbe,
  0x4e, 0x55, 0xc8, 0x3e, 0xf6, 0xb8, 0x56, 0x3e, 0xf6, 0x41, 0xf7, 0x3d,
  0x8d, 0xf9, 0x83, 0xbd, 0x9f, 0x00, 0x9d, 0xbe, 0x32, 0xb3, 0xd6, 0xbd,
  0x46, 0x3a, 0x38, 0x3f, 0xb5, 0x97, 0x60, 0x3e, 0xb8, 0x0d, 0xb3, 0x3e,
  0x0d, 0x51, 0xf7, 0xbd, 0x36, 0x4c, 0x4e, 0xbf, 0xcc, 0x88, 0x83, 0xbf,
  0x2b, 0x07, 0x2e, 0xbf, 0xce, 0x86, 0xc5, 0xbd, 0xb0, 0x5c, 0x1b, 0x3f,
  0x96, 0x25, 0x2e, 0xbd, 0x7f, 0x9e, 0xf0, 0xbe, 0x8b, 0x28, 0x55, 0x3f,
  0x4a, 0x96, 0x0e, 0x3f, 0xbf, 0x15, 0xe0, 0x3e, 0x4a, 0xab, 0xa1, 0x3d,
  0xc7, 0x54, 0x41, 0x3f, 0xfa, 0x8e, 0xe4, 0xbc, 0x46, 0xae, 0x8a, 0x3e,
  0xdd, 0x91, 0x80, 0x3d, 0x8d, 0x72, 0xa8, 0x3d, 0x39, 0x2f, 0x09, 0xbe,
  0x51, 0x43, 0x4c, 0x3f, 0x18, 0x50, 0xd2, 0xbd, 0xca, 0xe6, 0x8c, 0xbf,
  0x41, 0x2e, 0x94, 0xbe, 0x9b, 0xdc, 0x48, 0x3f, 0xcc, 0x30, 0x2b, 0x3f,
  0x7e, 0xb3, 0x9e, 0xbd, 0x4f, 0x9d, 0xc4, 0xbe, 0x6e, 0xfb, 0xd6, 0x3e,
  0x50, 0x3c, 0x29, 0x3e, 0x10, 0x06, 0x9d, 0x3d, 0x96, 0xfd, 0xb8, 0xbe,
  0xc9, 0x35, 0x4b, 0x3d, 0x8e, 0xd1, 0x3b, 0x3e, 0x80, 0x1c, 0xed, 0xbc,
  0x8d, 0x99, 0x56, 0xbe, 0x22, 0x29, 0x25, 0x3f, 0x87, 0x2e, 0xb2, 0x3e,
  0xf7, 0xb1, 0x03, 0x3f, 0xfe, 0xc2, 0x7d, 0xbe, 0xb8, 0x48, 0xc1, 0x3e,
  0x9c, 0xa3, 0xf9, 0x3b, 0x99, 0xe7, 0xe8, 0xbe, 0x28, 0x9f, 0x00, 0x3e,
  0x9b, 0xf2, 0x09, 0x3e, 0x30, 0xe7, 0x55, 0xbd, 0x60, 0x66, 0xdb, 0xbd,
  0x04, 0x44, 0xeb, 0x3e, 0x6e, 0xfb, 0x53, 0x3e, 0xfb, 0xa8, 0x8f, 0x3e,
